{
  "version": "1.0",
  "truncation": null,
  "padding": null,
  "added_tokens": [
    {
      "id": 0,
      "content": "<BOS>",
      "single_word": false,
      "lstrip": false,
      "rstrip": false,
      "normalized": false,
      "special": true
    },
    {
      "id": 1,
      "content": "<EOS>",
      "single_word": false,
      "lstrip": false,
      "rstrip": false,
      "normalized": false,
      "special": true
    },
    {
      "id": 2,
      "content": "<UNK>",
      "single_word": false,
      "lstrip": false,
      "rstrip": false,
      "normalized": false,
      "special": true
    }
  ],
  "normalizer": null,
  "pre_tokenizer": {
    "type": "Sequence",
    "pretokenizers": [
      {
        "type": "Whitespace"
      },
      {
        "type": "Punctuation",
        "behavior": "Isolated"
      }
    ]
  },
  "post_processor": null,
  "decoder": null,
  "model": {
    "type": "BPE",
    "dropout": null,
    "unk_token": null,
    "continuing_subword_prefix": null,
    "end_of_word_suffix": null,
    "fuse_unk": false,
    "byte_fallback": false,
    "ignore_merges": false,
    "vocab": {
      "<BOS>": 0,
      "<EOS>": 1,
      "<UNK>": 2,
      "!": 3,
      "\"": 4,
      "#": 5,
      "$": 6,
      "%": 7,
      "&": 8,
      "'": 9,
      "(": 10,
      ")": 11,
      ",": 12,
      "-": 13,
      ".": 14,
      "0": 15,
      "1": 16,
      "2": 17,
      "3": 18,
      "4": 19,
      "5": 20,
      "6": 21,
      "7": 22,
      "8": 23,
      "9": 24,
      ":": 25,
      ";": 26,
      "=": 27,
      "?": 28,
      "A": 29,
      "B": 30,
      "C": 31,
      "D": 32,
      "E": 33,
      "F": 34,
      "G": 35,
      "H": 36,
      "I": 37,
      "J": 38,
      "K": 39,
      "L": 40,
      "M": 41,
      "N": 42,
      "O": 43,
      "P": 44,
      "Q": 45,
      "R": 46,
      "S": 47,
      "T": 48,
      "U": 49,
      "V": 50,
      "W": 51,
      "X": 52,
      "Y": 53,
      "Z": 54,
      "`": 55,
      "a": 56,
      "b": 57,
      "c": 58,
      "d": 59,
      "e": 60,
      "f": 61,
      "g": 62,
      "h": 63,
      "i": 64,
      "j": 65,
      "k": 66,
      "l": 67,
      "m": 68,
      "n": 69,
      "o": 70,
      "p": 71,
      "q": 72,
      "r": 73,
      "s": 74,
      "t": 75,
      "u": 76,
      "v": 77,
      "w": 78,
      "x": 79,
      "y": 80,
      "z": 81,
      "in": 82,
      "an": 83,
      "ing": 84,
      "th": 85,
      "re": 86,
      "er": 87,
      "on": 88,
      "le": 89,
      "ar": 90,
      "hi": 91,
      "man": 92,
      "the": 93,
      "ou": 94,
      "and": 95,
      "at": 96,
      "st": 97,
      "wo": 98,
      "al": 99,
      "is": 100,
      "la": 101,
      "en": 102,
      "of": 103,
      "it": 104,
      "wi": 105,
      "ow": 106,
      "ck": 107,
      "with": 108,
      "to": 109,
      "ld": 110,
      "or": 111,
      "ir": 112,
      "es": 113,
      "et": 114,
      "ch": 115,
      "op": 116,
      "id": 117,
      "oun": 118,
      "are": 119,
      "whi": 120,
      "bo": 121,
      "ed": 122,
      "king": 123,
      "gr": 124,
      "ear": 125,
      "woman": 126,
      "as": 127,
      "oo": 128,
      "pla": 129,
      "all": 130,
      "te": 131,
      "ic": 132,
      "men": 133,
      "do": 134,
      "pe": 135,
      "ople": 136,
      "Two": 137,
      "play": 138,
      "ro": 139,
      "ho": 140,
      "ers": 141,
      "he": 142,
      "un": 143,
      "ge": 144,
      "ting": 145,
      "ts": 146,
      "shi": 147,
      "ss": 148,
      "bl": 149,
      "wear": 150,
      "wal": 151,
      "shir": 152,
      "red": 153,
      "sit": 154,
      "wearing": 155,
      "stand": 156,
      "ad": 157,
      "people": 158,
      "shirt": 159,
      "ll": 160,
      "own": 161,
      "ide": 162,
      "ra": 163,
      "oung": 164,
      "gh": 165,
      "me": 166,
      "white": 167,
      "be": 168,
      "irl": 169,
      "young": 170,
      "his": 171,
      "ue": 172,
      "ce": 173,
      "girl": 174,
      "boy": 175,
      "dog": 176,
      "bla": 177,
      "ri": 178,
      "black": 179,
      "lding": 180,
      "ack": 181,
      "co": 182,
      "while": 183,
      "ther": 184,
      "for": 185,
      "wat": 186,
      "oup": 187,
      "mp": 188,
      "one": 189,
      "blue": 190,
      "sh": 191,
      "ta": 192,
      "ur": 193,
      "ver": 194,
      "se": 195,
      "sitting": 196,
      "ve": 197,
      "ball": 198,
      "air": 199,
      "loo": 200,
      "ound": 201,
      "hild": 202,
      "li": 203,
      "standing": 204,
      "stre": 205,
      "so": 206,
      "playing": 207,
      "fr": 208,
      "bu": 209,
      "child": 210,
      "ard": 211,
      "by": 212,
      "group": 213,
      "lo": 214,
      "street": 215,
      "down": 216,
      "ree": 217,
      "out": 218,
      "ne": 219,
      "am": 220,
      "her": 221,
      "walking": 222,
      "il": 223,
      "ont": 224,
      "ay": 225,
      "walk": 226,
      "ti": 227,
      "sm": 228,
      "front": 229,
      "up": 230,
      "other": 231,
      "br": 232,
      "ap": 233,
      "The": 234,
      "holding": 235,
      "ke": 236,
      "car": 237,
      "ma": 238,
      "po": 239,
      "ress": 240,
      "water": 241,
      "tle": 242,
      "ju": 243,
      "dress": 244,
      "fi": 245,
      "side": 246,
      "run": 247,
      "ach": 248,
      "ying": 249,
      "thr": 250,
      "wor": 251,
      "par": 252,
      "some": 253,
      "back": 254,
      "reen": 255,
      "hat": 256,
      "ru": 257,
      "sk": 258,
      "jump": 259,
      "uit": 260,
      "looking": 261,
      "lit": 262,
      "green": 263,
      "An": 264,
      "ind": 265,
      "bi": 266,
      "women": 267,
      "ga": 268,
      "ght": 269,
      "ren": 270,
      "lar": 271,
      "form": 272,
      "Th": 273,
      "outs": 274,
      "si": 275,
      "rid": 276,
      "ble": 277,
      "ell": 278,
      "outside": 279,
      "sing": 280,
      "ough": 281,
      "cle": 282,
      "sn": 283,
      "Three": 284,
      "ks": 285,
      "ground": 286,
      "little": 287,
      "fe": 288,
      "pa": 289,
      "large": 290,
      "through": 291,
      "ong": 292,
      "cr": 293,
      "ass": 294,
      "ellow": 295,
      "ba": 296,
      "snow": 297,
      "old": 298,
      "di": 299,
      "yellow": 300,
      "brown": 301,
      "two": 302,
      "erson": 303,
      "over": 304,
      "tu": 305,
      "ul": 306,
      "board": 307,
      "lass": 308,
      "fro": 309,
      "eld": 310,
      "mb": 311,
      "from": 312,
      "their": 313,
      "ter": 314,
      "con": 315,
      "ly": 316,
      "into": 317,
      "person": 318,
      "ning": 319,
      "hand": 320,
      "foo": 321,
      "watch": 322,
      "xt": 323,
      "thing": 324,
      "ac": 325,
      "bui": 326,
      "tra": 327,
      "ate": 328,
      "ink": 329,
      "building": 330,
      "children": 331,
      "next": 332,
      "owd": 333,
      "our": 334,
      "small": 335,
      "mo": 336,
      "near": 337,
      "dressed": 338,
      "jack": 339,
      "crowd": 340,
      "jacket": 341,
      "glass": 342,
      "grass": 343,
      "ving": 344,
      "dy": 345,
      "wa": 346,
      "pu": 347,
      "male": 348,
      "sc": 349,
      "Pe": 350,
      "riding": 351,
      "running": 352,
      "ange": 353,
      "People": 354,
      "pi": 355,
      "ture": 356,
      "ha": 357,
      "ion": 358,
      "bas": 359,
      "off": 360,
      "sw": 361,
      "another": 362,
      "around": 363,
      "cli": 364,
      "sta": 365,
      "field": 366,
      "eat": 367,
      "tr": 368,
      "ycle": 369,
      "cer": 370,
      "table": 371,
      "per": 372,
      "tal": 373,
      "sidewalk": 374,
      "ket": 375,
      "top": 376,
      "work": 377,
      "clo": 378,
      "Man": 379,
      "read": 380,
      "ep": 381,
      "glasses": 382,
      "ity": 383,
      "orange": 384,
      "head": 385,
      "beach": 386,
      "ore": 387,
      "ans": 388,
      "ine": 389,
      "hone": 390,
      "ross": 391,
      "way": 392,
      "hair": 393,
      "hind": 394,
      "stands": 395,
      "pink": 396,
      "sits": 397,
      "jumping": 398,
      "je": 399,
      "behind": 400,
      "sun": 401,
      "stru": 402,
      "ice": 403,
      "iling": 404,
      "sp": 405,
      "go": 406,
      "der": 407,
      "tain": 408,
      "park": 409,
      "pic": 410,
      "door": 411,
      "gu": 412,
      "bike": 413,
      "background": 414,
      "cam": 415,
      "ond": 416,
      "fa": 417,
      "od": 418,
      "ment": 419,
      "de": 420,
      "mar": 421,
      "rock": 422,
      "wall": 423,
      "ten": 424,
      "city": 425,
      "suit": 426,
      "player": 427,
      "bic": 428,
      "girls": 429,
      "dan": 430,
      "dle": 431,
      "fl": 432,
      "perform": 433,
      "picture": 434,
      "ben": 435,
      "ool": 436,
      "looks": 437,
      "camer": 438,
      "mu": 439,
      "sur": 440,
      "tion": 441,
      "ves": 442,
      "met": 443,
      "shor": 444,
      "uitar": 445,
      "rop": 446,
      "guitar": 447,
      "dogs": 448,
      "veral": 449,
      "that": 450,
      "camera": 451,
      "wood": 452,
      "ct": 453,
      "get": 454,
      "ant": 455,
      "irt": 456,
      "oom": 457,
      "ountain": 458,
      "ped": 459,
      "hold": 460,
      "mid": 461,
      "hel": 462,
      "talking": 463,
      "tor": 464,
      "something": 465,
      "sho": 466,
      "cing": 467,
      "el": 468,
      "ccer": 469,
      "older": 470,
      "ick": 471,
      "ff": 472,
      "pan": 473,
      "ca": 474,
      "stu": 475,
      "along": 476,
      "walks": 477,
      "road": 478,
      "ish": 479,
      "bus": 480,
      "food": 481,
      "boys": 482,
      "working": 483,
      "bri": 484,
      "lady": 485,
      "cu": 486,
      "gg": 487,
      "toge": 488,
      "soccer": 489,
      "together": 490,
      "blond": 491,
      "gn": 492,
      "skate": 493,
      "gray": 494,
      "hor": 495,
      "les": 496,
      "end": 497,
      "him": 498,
      "bicycle": 499,
      "Asi": 500,
      "smiling": 501,
      "kes": 502,
      "uni": 503,
      "ey": 504,
      "plays": 505,
      "has": 506,
      "game": 507,
      "jo": 508,
      "stri": 509,
      "dr": 510,
      "mer": 511,
      "bench": 512,
      "comp": 513,
      "boo": 514,
      "guy": 515,
      "pre": 516,
      "them": 517,
      "uniform": 518,
      "qu": 519,
      "Asian": 520,
      "che": 521,
      "its": 522,
      "foot": 523,
      "led": 524,
      "holds": 525,
      "ms": 526,
      "sand": 527,
      "ation": 528,
      "face": 529,
      "ction": 530,
      "ol": 531,
      "atch": 532,
      "sa": 533,
      "swi": 534,
      "Four": 535,
      "Se": 536,
      "carr": 537,
      "climb": 538,
      "pants": 539,
      "chair": 540,
      "skateboard": 541,
      "room": 542,
      "col": 543,
      "ling": 544,
      "kid": 545,
      "pain": 546,
      "gs": 547,
      "under": 548,
      "stage": 549,
      "pur": 550,
      "shorts": 551,
      "coup": 552,
      "ping": 553,
      "umb": 554,
      "ent": 555,
      "boat": 556,
      "carrying": 557,
      "dirt": 558,
      "ming": 559,
      "pl": 560,
      "ful": 561,
      "set": 562,
      "ses": 563,
      "spe": 564,
      "baby": 565,
      "couple": 566,
      "tri": 567,
      "race": 568,
      "long": 569,
      "tan": 570,
      "tree": 571,
      "outdoor": 572,
      "base": 573,
      "band": 574,
      "ark": 575,
      "look": 576,
      "female": 577,
      "swim": 578,
      "mic": 579,
      "mountain": 580,
      "coat": 581,
      "day": 582,
      "Several": 583,
      "ple": 584,
      "pool": 585,
      "shop": 586,
      "each": 587,
      "sign": 588,
      "pro": 589,
      "owing": 590,
      "taking": 591,
      "phone": 592,
      "tow": 593,
      "basket": 594,
      "lling": 595,
      "au": 596,
      "doing": 597,
      "dark": 598,
      "cor": 599,
      "ty": 600,
      "hoto": 601,
      "across": 602,
      "watching": 603,
      "bar": 604,
      "iting": 605,
      "ican": 606,
      "jeans": 607,
      "ex": 608,
      "area": 609,
      "team": 610,
      "outh": 611,
      "middle": 612,
      "who": 613,
      "photo": 614,
      "store": 615,
      "sl": 616,
      "vi": 617,
      "jumps": 618,
      "fore": 619,
      "hands": 620,
      "cross": 621,
      "helmet": 622,
      "sic": 623,
      "horse": 624,
      "flo": 625,
      "ence": 626,
      "wind": 627,
      "su": 628,
      "sts": 629,
      "swing": 630,
      "eating": 631,
      "performing": 632,
      "toy": 633,
      "ni": 634,
      "we": 635,
      "being": 636,
      "sweat": 637,
      "light": 638,
      "striped": 639,
      "cks": 640,
      "uring": 641,
      "motor": 642,
      "baseball": 643,
      "cre": 644,
      "using": 645,
      "color": 646,
      "mouth": 647,
      "music": 648,
      "Wo": 649,
      "whe": 650,
      "football": 651,
      "rel": 652,
      "cl": 653,
      "ired": 654,
      "ding": 655,
      "itch": 656,
      "purple": 657,
      "ab": 658,
      "sle": 659,
      "microp": 660,
      "ag": 661,
      "app": 662,
      "hu": 663,
      "ating": 664,
      "tre": 665,
      "ob": 666,
      "haired": 667,
      "toward": 668,
      "fla": 669,
      "gi": 670,
      "nis": 671,
      "enjo": 672,
      "aper": 673,
      "posing": 674,
      "runs": 675,
      "train": 676,
      "window": 677,
      "fu": 678,
      "adul": 679,
      "struction": 680,
      "surf": 681,
      "Young": 682,
      "reading": 683,
      "tennis": 684,
      "na": 685,
      "she": 686,
      "sunglasses": 687,
      "des": 688,
      "ner": 689,
      "tru": 690,
      "can": 691,
      "clothing": 692,
      "dri": 693,
      "three": 694,
      "stick": 695,
      "players": 696,
      "microphone": 697,
      "bow": 698,
      "cean": 699,
      "vered": 700,
      "There": 701,
      "past": 702,
      "flow": 703,
      "fish": 704,
      "ash": 705,
      "ade": 706,
      "covered": 707,
      "ted": 708,
      "erly": 709,
      "catch": 710,
      "ive": 711,
      "tting": 712,
      "inst": 713,
      "basketball": 714,
      "ocean": 715,
      "fire": 716,
      "hill": 717,
      "ouch": 718,
      "watches": 719,
      "during": 720,
      "climbing": 721,
      "motorc": 722,
      "ian": 723,
      "staur": 724,
      "dancing": 725,
      "restaur": 726,
      "bag": 727,
      "bright": 728,
      "kids": 729,
      "aga": 730,
      "ev": 731,
      "round": 732,
      "restaurant": 733,
      "cap": 734,
      "no": 735,
      "ley": 736,
      "roll": 737,
      "outf": 738,
      "smi": 739,
      "ski": 740,
      "against": 741,
      "bal": 742,
      "pack": 743,
      "shirts": 744,
      "ines": 745,
      "full": 746,
      "ated": 747,
      "rides": 748,
      "umbrel": 749,
      "umbrella": 750,
      "um": 751,
      "high": 752,
      "ath": 753,
      "ft": 754,
      "open": 755,
      "elderly": 756,
      "ak": 757,
      "vers": 758,
      "arm": 759,
      "very": 760,
      "lored": 761,
      "market": 762,
      "du": 763,
      "ouse": 764,
      "One": 765,
      "So": 766,
      "wooden": 767,
      "about": 768,
      "trees": 769,
      "ang": 770,
      "having": 771,
      "cell": 772,
      "floor": 773,
      "waiting": 774,
      "instru": 775,
      "they": 776,
      "thers": 777,
      "drin": 778,
      "line": 779,
      "swimming": 780,
      "ew": 781,
      "getting": 782,
      "book": 783,
      "costu": 784,
      "truck": 785,
      "bear": 786,
      "aning": 787,
      "lea": 788,
      "cket": 789,
      "ily": 790,
      "cart": 791,
      "construction": 792,
      "trying": 793,
      "workers": 794,
      "shing": 795,
      "night": 796,
      "motorcycle": 797,
      "ces": 798,
      "rest": 799,
      "ycli": 800,
      "busy": 801,
      "colorful": 802,
      "ows": 803,
      "singing": 804,
      "bes": 805,
      "fence": 806,
      "ride": 807,
      "age": 808,
      "pie": 809,
      "Woman": 810,
      "This": 811,
      "dis": 812,
      "ler": 813,
      "ous": 814,
      "new": 815,
      "ance": 816,
      "stair": 817,
      "body": 818,
      "eps": 819,
      "ip": 820,
      "path": 821,
      "ci": 822,
      "mach": 823,
      "clothe": 824,
      "compet": 825,
      "pol": 826,
      "ons": 827,
      "laying": 828,
      "hats": 829,
      "itchen": 830,
      "Some": 831,
      "pass": 832,
      "ser": 833,
      "less": 834,
      "lau": 835,
      "track": 836,
      "Men": 837,
      "paper": 838,
      "stic": 839,
      "beard": 840,
      "kitchen": 841,
      "others": 842,
      "inside": 843,
      "cour": 844,
      "kick": 845,
      "grassy": 846,
      "eping": 847,
      "gging": 848,
      "cellphone": 849,
      "im": 850,
      "art": 851,
      "river": 852,
      "making": 853,
      "ject": 854,
      "surround": 855,
      "ort": 856,
      "aff": 857,
      "tur": 858,
      "sha": 859,
      "backpack": 860,
      "brick": 861,
      "clothes": 862,
      "mas": 863,
      "als": 864,
      "grap": 865,
      "takes": 866,
      "bik": 867,
      "metal": 868,
      "outfit": 869,
      "fac": 870,
      "rain": 871,
      "big": 872,
      "towards": 873,
      "laugh": 874,
      "ban": 875,
      "ckey": 876,
      "fli": 877,
      "stone": 878,
      "vest": 879,
      "enjoying": 880,
      "coun": 881,
      "cking": 882,
      "ood": 883,
      "box": 884,
      "colored": 885,
      "ny": 886,
      "tic": 887,
      "mes": 888,
      "ope": 889,
      "ready": 890,
      "piece": 891,
      "lap": 892,
      "raw": 893,
      "cas": 894,
      "dd": 895,
      "hard": 896,
      "ates": 897,
      "tank": 898,
      "inter": 899,
      "ster": 900,
      "ors": 901,
      "house": 902,
      "ition": 903,
      "unch": 904,
      "painting": 905,
      "Five": 906,
      "abo": 907,
      "cow": 908,
      "dru": 909,
      "hang": 910,
      "ite": 911,
      "Child": 912,
      "ring": 913,
      "lake": 914,
      "tire": 915,
      "sweater": 916,
      "pare": 917,
      "iti": 918,
      "trick": 919,
      "sub": 920,
      "several": 921,
      "photograp": 922,
      "above": 923,
      "af": 924,
      "frican": 925,
      "brid": 926,
      "bles": 927,
      "view": 928,
      "kne": 929,
      "vol": 930,
      "thered": 931,
      "lot": 932,
      "going": 933,
      "police": 934,
      "fri": 935,
      "lec": 936,
      "many": 937,
      "chas": 938,
      "like": 939,
      "class": 940,
      "onto": 941,
      "ird": 942,
      "bot": 943,
      "snowy": 944,
      "dance": 945,
      "gy": 946,
      "ones": 947,
      "temp": 948,
      "wave": 949,
      "worker": 950,
      "shopping": 951,
      "wheel": 952,
      "cal": 953,
      "coo": 954,
      "fo": 955,
      "gen": 956,
      "ill": 957,
      "sto": 958,
      "uniforms": 959,
      "surrounded": 960,
      "gather": 961,
      "crowded": 962,
      "In": 963,
      "gear": 964,
      "poin": 965,
      "snowboard": 966,
      "teen": 967,
      "smiles": 968,
      "pra": 969,
      "vel": 970,
      "pole": 971,
      "outdoors": 972,
      "beside": 973,
      "friend": 974,
      "todd": 975,
      "convers": 976,
      "adults": 977,
      "roller": 978,
      "Amer": 979,
      "cur": 980,
      "plan": 981,
      "drinking": 982,
      "fam": 983,
      "yard": 984,
      "shoes": 985,
      "den": 986,
      "mon": 987,
      "ments": 988,
      "after": 989,
      "bridge": 990,
      "fall": 991,
      "scar": 992,
      "star": 993,
      "flowers": 994,
      "fountain": 995,
      "ys": 996,
      "gathered": 997,
      "prepar": 998,
      "auti": 999,
      "leap": 1000,
      "arms": 1001,
      "event": 1002,
      "hanging": 1003,
      "away": 1004,
      "ary": 1005,
      "lder": 1006,
      "prepare": 1007,
      "subway": 1008,
      "African": 1009,
      "carri": 1010,
      "gym": 1011,
      "family": 1012,
      "autiful": 1013,
      "xing": 1014,
      "ening": 1015,
      "graff": 1016,
      "rap": 1017,
      "ballo": 1018,
      "smo": 1019,
      "rope": 1020,
      "preparing": 1021,
      "ph": 1022,
      "leaning": 1023,
      "steps": 1024,
      "hockey": 1025,
      "take": 1026,
      "object": 1027,
      "costume": 1028,
      "toddler": 1029,
      "mat": 1030,
      "attemp": 1031,
      "racing": 1032,
      "offic": 1033,
      "Many": 1034,
      "short": 1035,
      "compu": 1036,
      "forest": 1037,
      "sleeping": 1038,
      "fishing": 1039,
      "does": 1040,
      "make": 1041,
      "trail": 1042,
      "guys": 1043,
      "appear": 1044,
      "graffiti": 1045,
      "pr": 1046,
      "plaid": 1047,
      "machine": 1048,
      "Children": 1049,
      "kis": 1050,
      "beautiful": 1051,
      "sky": 1052,
      "stairs": 1053,
      "cup": 1054,
      "four": 1055,
      "ved": 1056,
      "dies": 1057,
      "American": 1058,
      "bat": 1059,
      "bed": 1060,
      "rail": 1061,
      "chairs": 1062,
      "adult": 1063,
      "gar": 1064,
      "asian": 1065,
      "try": 1066,
      "bre": 1067,
      "bee": 1068,
      "Ch": 1069,
      "fil": 1070,
      "ven": 1071,
      "ined": 1072,
      "too": 1073,
      "ersey": 1074,
      "shirtless": 1075,
      "selling": 1076,
      "pract": 1077,
      "bet": 1078,
      "jersey": 1079,
      "tall": 1080,
      "ste": 1081,
      "stat": 1082,
      "list": 1083,
      "sunny": 1084,
      "rocks": 1085,
      "setting": 1086,
      "aged": 1087,
      "equ": 1088,
      "ari": 1089,
      "lls": 1090,
      "pose": 1091,
      "just": 1092,
      "yclist": 1093,
      "iv": 1094,
      "net": 1095,
      "stance": 1096,
      "ise": 1097,
      "shou": 1098,
      "pot": 1099,
      "scarf": 1100,
      "land": 1101,
      "match": 1102,
      "ron": 1103,
      "tch": 1104,
      "wet": 1105,
      "ery": 1106,
      "lead": 1107,
      "both": 1108,
      "ramp": 1109,
      "putting": 1110,
      "corner": 1111,
      "volley": 1112,
      "gentle": 1113,
      "equip": 1114,
      "numb": 1115,
      "isbee": 1116,
      "throwing": 1117,
      "pushing": 1118,
      "tent": 1119,
      "clu": 1120,
      "flip": 1121,
      "bor": 1122,
      "fet": 1123,
      "sed": 1124,
      "blic": 1125,
      "time": 1126,
      "parade": 1127,
      "public": 1128,
      "have": 1129,
      "drink": 1130,
      "slide": 1131,
      "ween": 1132,
      "between": 1133,
      "volleyball": 1134,
      "couch": 1135,
      "row": 1136,
      "hicle": 1137,
      "stop": 1138,
      "ladies": 1139,
      "scen": 1140,
      "laughing": 1141,
      "lf": 1142,
      "med": 1143,
      "show": 1144,
      "fruit": 1145,
      "someone": 1146,
      "reads": 1147,
      "flag": 1148,
      "instruments": 1149,
      "computer": 1150,
      "equipment": 1151,
      "squ": 1152,
      "vend": 1153,
      "chool": 1154,
      "home": 1155,
      "vehicle": 1156,
      "bikes": 1157,
      "pictures": 1158,
      "where": 1159,
      "cra": 1160,
      "glo": 1161,
      "happ": 1162,
      "plastic": 1163,
      "woods": 1164,
      "spea": 1165,
      "photograph": 1166,
      "bottle": 1167,
      "bird": 1168,
      "pat": 1169,
      "pad": 1170,
      "ure": 1171,
      "reach": 1172,
      "which": 1173,
      "ally": 1174,
      "playground": 1175,
      "poses": 1176,
      "works": 1177,
      "party": 1178,
      "concre": 1179,
      "sweatshirt": 1180,
      "concrete": 1181,
      "ctor": 1182,
      "gold": 1183,
      "dock": 1184,
      "feren": 1185,
      "statue": 1186,
      "low": 1187,
      "ward": 1188,
      "winter": 1189,
      "midair": 1190,
      "ggles": 1191,
      "Bo": 1192,
      "ium": 1193,
      "sil": 1194,
      "wr": 1195,
      "suits": 1196,
      "ini": 1197,
      "bucket": 1198,
      "skirt": 1199,
      "scope": 1200,
      "cowboy": 1201,
      "number": 1202,
      "emp": 1203,
      "ix": 1204,
      "tat": 1205,
      "ators": 1206,
      "blo": 1207,
      "veget": 1208,
      "tive": 1209,
      "distance": 1210,
      "Gr": 1211,
      "din": 1212,
      "ki": 1213,
      "tte": 1214,
      "what": 1215,
      "anim": 1216,
      "attire": 1217,
      "place": 1218,
      "right": 1219,
      "shes": 1220,
      "seated": 1221,
      "bags": 1222,
      "prote": 1223,
      "cream": 1224,
      "school": 1225,
      "ins": 1226,
      "left": 1227,
      "lad": 1228,
      "site": 1229,
      "rist": 1230,
      "spor": 1231,
      "spect": 1232,
      "slid": 1233,
      "lined": 1234,
      "ps": 1235,
      "enter": 1236,
      "edge": 1237,
      "blan": 1238,
      "beer": 1239,
      "vests": 1240,
      "wait": 1241,
      "struc": 1242,
      "cutting": 1243,
      "kneel": 1244,
      "cooking": 1245,
      "filled": 1246,
      "Fr": 1247,
      "draw": 1248,
      "mil": 1249,
      "ned": 1250,
      "ops": 1251,
      "buildings": 1252,
      "pulling": 1253,
      "cliff": 1254,
      "newsp": 1255,
      "Lit": 1256,
      "gare": 1257,
      "kers": 1258,
      "ry": 1259,
      "let": 1260,
      "station": 1261,
      "alley": 1262,
      "ese": 1263,
      "grill": 1264,
      "hot": 1265,
      "rider": 1266,
      "bowl": 1267,
      "cigare": 1268,
      "Little": 1269,
      "Girl": 1270,
      "bare": 1271,
      "ters": 1272,
      "wrest": 1273,
      "roof": 1274,
      "but": 1275,
      "close": 1276,
      "cheer": 1277,
      "appears": 1278,
      "break": 1279,
      "practic": 1280,
      "tattoo": 1281,
      "vegeta": 1282,
      "ghts": 1283,
      "showing": 1284,
      "mountains": 1285,
      "crossing": 1286,
      "instrument": 1287,
      "court": 1288,
      "blanket": 1289,
      "mul": 1290,
      "bub": 1291,
      "fight": 1292,
      "bathing": 1293,
      "cut": 1294,
      "paint": 1295,
      "structure": 1296,
      "elec": 1297,
      "pet": 1298,
      "len": 1299,
      "offe": 1300,
      "ical": 1301,
      "dresses": 1302,
      "nearby": 1303,
      "performs": 1304,
      "horses": 1305,
      "Women": 1306,
      "Indi": 1307,
      "electr": 1308,
      "ham": 1309,
      "ign": 1310,
      "pair": 1311,
      "rela": 1312,
      "see": 1313,
      "apron": 1314,
      "few": 1315,
      "cert": 1316,
      "driving": 1317,
      "flower": 1318,
      "yclists": 1319,
      "country": 1320,
      "friends": 1321,
      "carries": 1322,
      "Frisbee": 1323,
      "ds": 1324,
      "ie": 1325,
      "por": 1326,
      "uses": 1327,
      "vari": 1328,
      "wing": 1329,
      "res": 1330,
      "sty": 1331,
      "tial": 1332,
      "goal": 1333,
      "shore": 1334,
      "bowling": 1335,
      "leaves": 1336,
      "Group": 1337,
      "offee": 1338,
      "hood": 1339,
      "iz": 1340,
      "arts": 1341,
      "key": 1342,
      "cars": 1343,
      "parked": 1344,
      "boots": 1345,
      "painted": 1346,
      "dents": 1347,
      "cigarette": 1348,
      "Person": 1349,
      "ker": 1350,
      "mir": 1351,
      "mother": 1352,
      "wash": 1353,
      "hit": 1354,
      "tele": 1355,
      "railing": 1356,
      "bru": 1357,
      "goggles": 1358,
      "mud": 1359,
      "shot": 1360,
      "cake": 1361,
      "smile": 1362,
      "display": 1363,
      "snowboarder": 1364,
      "vendor": 1365,
      "gun": 1366,
      "ight": 1367,
      "vis": 1368,
      "law": 1369,
      "talks": 1370,
      "martial": 1371,
      "flying": 1372,
      "skateboarder": 1373,
      "drums": 1374,
      "smoking": 1375,
      "phones": 1376,
      "av": 1377,
      "coffee": 1378,
      "lying": 1379,
      "wed": 1380,
      "gaz": 1381,
      "dire": 1382,
      "concert": 1383,
      "rocky": 1384,
      "eyes": 1385,
      "drum": 1386,
      "bunch": 1387,
      "fun": 1388,
      "fferen": 1389,
      "spla": 1390,
      "ghting": 1391,
      "younger": 1392,
      "coming": 1393,
      "tie": 1394,
      "jackets": 1395,
      "waves": 1396,
      "safet": 1397,
      "swinging": 1398,
      "flags": 1399,
      "kicking": 1400,
      "conversation": 1401,
      "prepares": 1402,
      "newspaper": 1403,
      "safety": 1404,
      "fen": 1405,
      "pitch": 1406,
      "use": 1407,
      "arti": 1408,
      "ats": 1409,
      "rode": 1410,
      "cement": 1411,
      "parking": 1412,
      "differen": 1413,
      "audi": 1414,
      "costumes": 1415,
      "case": 1416,
      "gentleman": 1417,
      "gloves": 1418,
      "spectators": 1419,
      "practicing": 1420,
      "mers": 1421,
      "this": 1422,
      "onlook": 1423,
      "there": 1424,
      "cleaning": 1425,
      "scoo": 1426,
      "pres": 1427,
      "surfer": 1428,
      "competition": 1429,
      "bearded": 1430,
      "listening": 1431,
      "scene": 1432,
      "Boy": 1433,
      "ladder": 1434,
      "different": 1435,
      "ians": 1436,
      "pon": 1437,
      "say": 1438,
      "sting": 1439,
      "cha": 1440,
      "coll": 1441,
      "bull": 1442,
      "neck": 1443,
      "swe": 1444,
      "spra": 1445,
      "skateboarding": 1446,
      "mask": 1447,
      "items": 1448,
      "staring": 1449,
      "ids": 1450,
      "idu": 1451,
      "rais": 1452,
      "meal": 1453,
      "sion": 1454,
      "pile": 1455,
      "bicycles": 1456,
      "dry": 1457,
      "check": 1458,
      "plat": 1459,
      "giving": 1460,
      "surfboard": 1461,
      "desk": 1462,
      "turn": 1463,
      "bikini": 1464,
      "balloon": 1465,
      "empty": 1466,
      "various": 1467,
      "lawn": 1468,
      "audience": 1469,
      "Con": 1470,
      "port": 1471,
      "itary": 1472,
      "ette": 1473,
      "among": 1474,
      "gets": 1475,
      "drinks": 1476,
      "Someone": 1477,
      "leaps": 1478,
      "rodeo": 1479,
      "onlookers": 1480,
      "card": 1481,
      "ered": 1482,
      "ial": 1483,
      "kay": 1484,
      "nic": 1485,
      "zz": 1486,
      "lay": 1487,
      "gathering": 1488,
      "pointing": 1489,
      "silver": 1490,
      "sliding": 1491,
      "vegetables": 1492,
      "platform": 1493,
      "bb": 1494,
      "cers": 1495,
      "fing": 1496,
      "made": 1497,
      "sof": 1498,
      "eng": 1499,
      "ess": 1500,
      "shoo": 1501,
      "ural": 1502,
      "sold": 1503,
      "streets": 1504,
      "feet": 1505,
      "screen": 1506,
      "trad": 1507,
      "viol": 1508,
      "obser": 1509,
      "iness": 1510,
      "facing": 1511,
      "counter": 1512,
      "chasing": 1513,
      "teenag": 1514,
      "sports": 1515,
      "Indian": 1516,
      "cy": 1517,
      "cir": 1518,
      "que": 1519,
      "before": 1520,
      "waters": 1521,
      "stretch": 1522,
      "nel": 1523,
      "indiv": 1524,
      "ulp": 1525,
      "helmets": 1526,
      "competing": 1527,
      "biker": 1528,
      "happy": 1529,
      "speaking": 1530,
      "wedding": 1531,
      "individu": 1532,
      "Six": 1533,
      "eth": 1534,
      "ken": 1535,
      "mall": 1536,
      "ining": 1537,
      "lights": 1538,
      "sculp": 1539,
      "shovel": 1540,
      "tries": 1541,
      "teams": 1542,
      "huge": 1543,
      "surfing": 1544,
      "cano": 1545,
      "athle": 1546,
      "laptop": 1547,
      "classroom": 1548,
      "tradition": 1549,
      "ast": 1550,
      "ced": 1551,
      "pes": 1552,
      "ton": 1553,
      "tun": 1554,
      "vide": 1555,
      "wrap": 1556,
      "memb": 1557,
      "bride": 1558,
      "fighting": 1559,
      "sings": 1560,
      "waits": 1561,
      "decor": 1562,
      "students": 1563,
      "business": 1564,
      "climbs": 1565,
      "purse": 1566,
      "produ": 1567,
      "sticks": 1568,
      "athon": 1569,
      "traditional": 1570,
      "mi": 1571,
      "sled": 1572,
      "shad": 1573,
      "seen": 1574,
      "part": 1575,
      "crouch": 1576,
      "clown": 1577,
      "plane": 1578,
      "kissing": 1579,
      "animal": 1580,
      "military": 1581,
      "cts": 1582,
      "son": 1583,
      "town": 1584,
      "trun": 1585,
      "well": 1586,
      "stroller": 1587,
      "oper": 1588,
      "hole": 1589,
      "cover": 1590,
      "urban": 1591,
      "walkway": 1592,
      "throw": 1593,
      "skating": 1594,
      "chef": 1595,
      "same": 1596,
      "writing": 1597,
      "Wor": 1598,
      "ked": 1599,
      "allow": 1600,
      "sea": 1601,
      "diving": 1602,
      "sunset": 1603,
      "females": 1604,
      "exam": 1605,
      "skier": 1606,
      "shoulder": 1607,
      "kneeling": 1608,
      "video": 1609,
      "bur": 1610,
      "chi": 1611,
      "cand": 1612,
      "gard": 1613,
      "hoo": 1614,
      "ror": 1615,
      "sup": 1616,
      "sort": 1617,
      "indoor": 1618,
      "ator": 1619,
      "life": 1620,
      "runner": 1621,
      "partic": 1622,
      "waving": 1623,
      "talk": 1624,
      "golf": 1625,
      "chest": 1626,
      "attempting": 1627,
      "ristmas": 1628,
      "barefoot": 1629,
      "scooter": 1630,
      "soldi": 1631,
      "ges": 1632,
      "ien": 1633,
      "lan": 1634,
      "pas": 1635,
      "rink": 1636,
      "touch": 1637,
      "leash": 1638,
      "blowing": 1639,
      "com": 1640,
      "makes": 1641,
      "tables": 1642,
      "cloth": 1643,
      "father": 1644,
      "marathon": 1645,
      "camp": 1646,
      "signs": 1647,
      "clou": 1648,
      "enjoy": 1649,
      "outfits": 1650,
      "balan": 1651,
      "resting": 1652,
      "course": 1653,
      "electric": 1654,
      "violin": 1655,
      "cat": 1656,
      "ies": 1657,
      "leg": 1658,
      "lebr": 1659,
      "adver": 1660,
      "celebr": 1661,
      "lies": 1662,
      "five": 1663,
      "overlooking": 1664,
      "cuss": 1665,
      "bald": 1666,
      "inese": 1667,
      "fully": 1668,
      "officer": 1669,
      "multic": 1670,
      "bubbles": 1671,
      "mirror": 1672,
      "says": 1673,
      "advert": 1674,
      "cont": 1675,
      "gre": 1676,
      "har": 1677,
      "leans": 1678,
      "atten": 1679,
      "stun": 1680,
      "ching": 1681,
      "rolling": 1682,
      "fixing": 1683,
      "pier": 1684,
      "custo": 1685,
      "foll": 1686,
      "gymna": 1687,
      "balloons": 1688,
      "collar": 1689,
      "able": 1690,
      "fin": 1691,
      "ist": 1692,
      "pen": 1693,
      "tack": 1694,
      "ative": 1695,
      "alone": 1696,
      "tool": 1697,
      "gro": 1698,
      "rol": 1699,
      "helping": 1700,
      "micro": 1701,
      "foreground": 1702,
      "musicians": 1703,
      "deser": 1704,
      "brightly": 1705,
      "not": 1706,
      "umbrellas": 1707,
      "leather": 1708,
      "discuss": 1709,
      "faces": 1710,
      "artist": 1711,
      "Construction": 1712,
      "dau": 1713,
      "good": 1714,
      "ners": 1715,
      "vice": 1716,
      "leep": 1717,
      "legs": 1718,
      "stad": 1719,
      "asleep": 1720,
      "meat": 1721,
      "load": 1722,
      "die": 1723,
      "headphones": 1724,
      "ffic": 1725,
      "plate": 1726,
      "giant": 1727,
      "prin": 1728,
      "sculpture": 1729,
      "canoe": 1730,
      "particip": 1731,
      "daught": 1732,
      "Do": 1733,
      "ctive": 1734,
      "dra": 1735,
      "dish": 1736,
      "olored": 1737,
      "sy": 1738,
      "van": 1739,
      "repair": 1740,
      "str": 1741,
      "ched": 1742,
      "chur": 1743,
      "heav": 1744,
      "wears": 1745,
      "mel": 1746,
      "tail": 1747,
      "office": 1748,
      "trash": 1749,
      "doorway": 1750,
      "guard": 1751,
      "sandals": 1752,
      "swings": 1753,
      "slee": 1754,
      "falling": 1755,
      "drawing": 1756,
      "washing": 1757,
      "passing": 1758,
      "grocer": 1759,
      "stadium": 1760,
      "He": 1761,
      "ddle": 1762,
      "fts": 1763,
      "lu": 1764,
      "val": 1765,
      "ref": 1766,
      "hiking": 1767,
      "string": 1768,
      "held": 1769,
      "accor": 1770,
      "move": 1771,
      "heads": 1772,
      "stuff": 1773,
      "comple": 1774,
      "toys": 1775,
      "musical": 1776,
      "skiing": 1777,
      "officers": 1778,
      "hammer": 1779,
      "multicolored": 1780,
      "accordi": 1781,
      "fur": 1782,
      "hall": 1783,
      "kn": 1784,
      "min": 1785,
      "py": 1786,
      "inclu": 1787,
      "mance": 1788,
      "formance": 1789,
      "sel": 1790,
      "throws": 1791,
      "males": 1792,
      "sca": 1793,
      "picking": 1794,
      "performance": 1795,
      "spend": 1796,
      "shoe": 1797,
      "booth": 1798,
      "dirty": 1799,
      "photographer": 1800,
      "teenage": 1801,
      "prof": 1802,
      "reaching": 1803,
      "finish": 1804,
      "church": 1805,
      "accordion": 1806,
      "Whi": 1807,
      "cting": 1808,
      "fan": 1809,
      "fra": 1810,
      "hear": 1811,
      "ima": 1812,
      "pond": 1813,
      "ering": 1814,
      "straw": 1815,
      "laun": 1816,
      "below": 1817,
      "shallow": 1818,
      "veling": 1819,
      "clean": 1820,
      "digging": 1821,
      "traffic": 1822,
      "most": 1823,
      "flu": 1824,
      "eye": 1825,
      "pati": 1826,
      "block": 1827,
      "present": 1828,
      "daughter": 1829,
      "gate": 1830,
      "how": 1831,
      "ige": 1832,
      "igh": 1833,
      "kha": 1834,
      "nap": 1835,
      "pour": 1836,
      "ater": 1837,
      "atop": 1838,
      "ature": 1839,
      "ens": 1840,
      "lders": 1841,
      "teach": 1842,
      "pea": 1843,
      "upside": 1844,
      "brun": 1845,
      "moving": 1846,
      "dancers": 1847,
      "project": 1848,
      "hugging": 1849,
      "gives": 1850,
      "catching": 1851,
      "catches": 1852,
      "passes": 1853,
      "relaxing": 1854,
      "direction": 1855,
      "soft": 1856,
      "tunnel": 1857,
      "microscope": 1858,
      "Bla": 1859,
      "Gu": 1860,
      "aster": 1861,
      "bro": 1862,
      "dun": 1863,
      "ele": 1864,
      "hou": 1865,
      "kar": 1866,
      "pup": 1867,
      "pul": 1868,
      "stor": 1869,
      "allen": 1870,
      "lab": 1871,
      "ession": 1872,
      "ches": 1873,
      "robe": 1874,
      "hoop": 1875,
      "bly": 1876,
      "beige": 1877,
      "shows": 1878,
      "self": 1879,
      "balls": 1880,
      "paved": 1881,
      "pill": 1882,
      "deep": 1883,
      "els": 1884,
      "cau": 1885,
      "cafe": 1886,
      "books": 1887,
      "sleeps": 1888,
      "flies": 1889,
      "leaping": 1890,
      "Christmas": 1891,
      "Chinese": 1892,
      "sweeping": 1893,
      "garden": 1894,
      "stunt": 1895,
      "brunette": 1896,
      "bin": 1897,
      "ber": 1898,
      "estri": 1899,
      "hur": 1900,
      "lone": 1901,
      "step": 1902,
      "teeth": 1903,
      "hose": 1904,
      "cold": 1905,
      "stream": 1906,
      "post": 1907,
      "skin": 1908,
      "singer": 1909,
      "fest": 1910,
      "scaff": 1911,
      "flat": 1912,
      "coats": 1913,
      "conversing": 1914,
      "wards": 1915,
      "chain": 1916,
      "circle": 1917,
      "trunks": 1918,
      "hoodie": 1919,
      "desert": 1920,
      "St": 1921,
      "cri": 1922,
      "cyclist": 1923,
      "fair": 1924,
      "lers": 1925,
      "ness": 1926,
      "war": 1927,
      "stack": 1928,
      "alls": 1929,
      "racket": 1930,
      "ried": 1931,
      "neath": 1932,
      "formal": 1933,
      "contain": 1934,
      "closed": 1935,
      "deck": 1936,
      "stud": 1937,
      "jogging": 1938,
      "underneath": 1939,
      "suspend": 1940,
      "wea": 1941,
      "balcon": 1942,
      "points": 1943,
      "plants": 1944,
      "square": 1945,
      "wrestling": 1946,
      "telescope": 1947,
      "splashing": 1948,
      "covering": 1949,
      "sleeve": 1950,
      "Black": 1951,
      "karate": 1952,
      "Kids": 1953,
      "fre": 1954,
      "fting": 1955,
      "fant": 1956,
      "ger": 1957,
      "us": 1958,
      "without": 1959,
      "cho": 1960,
      "ophone": 1961,
      "appro": 1962,
      "magaz": 1963,
      "gage": 1964,
      "tramp": 1965,
      "dances": 1966,
      "must": 1967,
      "ggling": 1968,
      "themsel": 1969,
      "oline": 1970,
      "sax": 1971,
      "nival": 1972,
      "hula": 1973,
      "cane": 1974,
      "passeng": 1975,
      "curly": 1976,
      "shoulders": 1977,
      "padd": 1978,
      "spray": 1979,
      "including": 1980,
      "themselves": 1981,
      "Co": 1982,
      "Old": 1983,
      "Small": 1984,
      "bun": 1985,
      "kind": 1986,
      "mural": 1987,
      "pin": 1988,
      "tong": 1989,
      "wine": 1990,
      "zed": 1991,
      "ina": 1992,
      "erman": 1993,
      "hiker": 1994,
      "atta": 1995,
      "entr": 1996,
      "opposing": 1997,
      "ung": 1998,
      "taken": 1999,
      "carnival": 2000,
      "clear": 2001,
      "crying": 2002,
      "bath": 2003,
      "moto": 2004,
      "bicyclist": 2005,
      "wooded": 2006,
      "tricks": 2007,
      "crosswalk": 2008,
      "sheet": 2009,
      "opening": 2010,
      "makeup": 2011,
      "matching": 2012,
      "dinner": 2013,
      "kayak": 2014,
      "individuals": 2015,
      "produce": 2016,
      "Workers": 2017,
      "heavy": 2018,
      "pulled": 2019,
      "trampoline": 2020,
      "fly": 2021,
      "nice": 2022,
      "spot": 2023,
      "inspe": 2024,
      "infant": 2025,
      "rece": 2026,
      "stroll": 2027,
      "ower": 2028,
      "eding": 2029,
      "gra": 2030,
      "seat": 2031,
      "sewing": 2032,
      "tub": 2033,
      "picnic": 2034,
      "dles": 2035,
      "performer": 2036,
      "surface": 2037,
      "help": 2038,
      "nose": 2039,
      "cial": 2040,
      "knee": 2041,
      "attempts": 2042,
      "leaders": 2043,
      "brush": 2044,
      "members": 2045,
      "stuffed": 2046,
      "profession": 2047,
      "Bl": 2048,
      "center": 2049,
      "drop": 2050,
      "ire": 2051,
      "lunch": 2052,
      "press": 2053,
      "vil": 2054,
      "inning": 2055,
      "third": 2056,
      "lays": 2057,
      "ital": 2058,
      "icycle": 2059,
      "blouse": 2060,
      "lly": 2061,
      "bel": 2062,
      "bever": 2063,
      "log": 2064,
      "rug": 2065,
      "These": 2066,
      "pushes": 2067,
      "goes": 2068,
      "himself": 2069,
      "exc": 2070,
      "slope": 2071,
      "driver": 2072,
      "chases": 2073,
      "botto": 2074,
      "button": 2075,
      "style": 2076,
      "softball": 2077,
      "estrians": 2078,
      "festiv": 2079,
      "balcony": 2080,
      "approach": 2081,
      "AT": 2082,
      "bble": 2083,
      "mop": 2084,
      "mate": 2085,
      "ot": 2086,
      "pal": 2087,
      "za": 2088,
      "ited": 2089,
      "ares": 2090,
      "ashi": 2091,
      "live": 2092,
      "lift": 2093,
      "waterfall": 2094,
      "skis": 2095,
      "put": 2096,
      "puts": 2097,
      "pulls": 2098,
      "sprink": 2099,
      "device": 2100,
      "bent": 2101,
      "sandy": 2102,
      "type": 2103,
      "staircase": 2104,
      "boxes": 2105,
      "steep": 2106,
      "club": 2107,
      "speaks": 2108,
      "athlete": 2109,
      "advertise": 2110,
      "Br": 2111,
      "Ma": 2112,
      "don": 2113,
      "fallen": 2114,
      "gon": 2115,
      "hal": 2116,
      "ka": 2117,
      "lid": 2118,
      "ns": 2119,
      "pit": 2120,
      "angs": 2121,
      "atting": 2122,
      "stool": 2123,
      "alk": 2124,
      "irts": 2125,
      "robes": 2126,
      "ship": 2127,
      "podi": 2128,
      "overalls": 2129,
      "puddle": 2130,
      "pick": 2131,
      "dancer": 2132,
      "swims": 2133,
      "boats": 2134,
      "enjoys": 2135,
      "design": 2136,
      "drives": 2137,
      "shaking": 2138,
      "wetsuit": 2139,
      "keyboard": 2140,
      "gymnast": 2141,
      "grocery": 2142,
      "scape": 2143,
      "Guy": 2144,
      "fresh": 2145,
      "festival": 2146,
      "New": 2147,
      "Older": 2148,
      "bs": 2149,
      "bou": 2150,
      "farm": 2151,
      "hangs": 2152,
      "jam": 2153,
      "mound": 2154,
      "sco": 2155,
      "onic": 2156,
      "hikers": 2157,
      "grind": 2158,
      "shar": 2159,
      "vement": 2160,
      "apan": 2161,
      "apers": 2162,
      "figu": 2163,
      "tracks": 2164,
      "pian": 2165,
      "headed": 2166,
      "jean": 2167,
      "marching": 2168,
      "bicyclists": 2169,
      "cted": 2170,
      "compan": 2171,
      "ledge": 2172,
      "barbe": 2173,
      "kicks": 2174,
      "shaving": 2175,
      "curb": 2176,
      "garb": 2177,
      "gentlemen": 2178,
      "birds": 2179,
      "porch": 2180,
      "pitcher": 2181,
      "fingers": 2182,
      "teenagers": 2183,
      "wrapped": 2184,
      "cloudy": 2185,
      "customers": 2186,
      "laundry": 2187,
      "pouring": 2188,
      "San": 2189,
      "amp": 2190,
      "bra": 2191,
      "care": 2192,
      "fashi": 2193,
      "ggage": 2194,
      "ls": 2195,
      "enga": 2196,
      "orien": 2197,
      "chalk": 2198,
      "oppo": 2199,
      "arena": 2200,
      "groom": 2201,
      "ears": 2202,
      "shap": 2203,
      "airplane": 2204,
      "lots": 2205,
      "local": 2206,
      "bric": 2207,
      "apart": 2208,
      "polo": 2209,
      "poles": 2210,
      "backyard": 2211,
      "moves": 2212,
      "scu": 2213,
      "shoveling": 2214,
      "cular": 2215,
      "checking": 2216,
      "saw": 2217,
      "sale": 2218,
      "foreign": 2219,
      "colors": 2220,
      "sheep": 2221,
      "evening": 2222,
      "chase": 2223,
      "reaches": 2224,
      "golden": 2225,
      "blocks": 2226,
      "protective": 2227,
      "shooting": 2228,
      "teenager": 2229,
      "Here": 2230,
      "khaki": 2231,
      "paddling": 2232,
      "attached": 2233,
      "palm": 2234,
      "podium": 2235,
      "piano": 2236,
      "oriental": 2237,
      "opposite": 2238,
      "Japan": 2239,
      "bit": 2240,
      "bread": 2241,
      "ef": 2242,
      "ei": 2243,
      "emb": 2244,
      "far": 2245,
      "gan": 2246,
      "ged": 2247,
      "olding": 2248,
      "range": 2249,
      "swor": 2250,
      "tou": 2251,
      "vac": 2252,
      "was": 2253,
      "yo": 2254,
      "inflat": 2255,
      "recor": 2256,
      "arrow": 2257,
      "oufla": 2258,
      "stle": 2259,
      "ising": 2260,
      "itor": 2261,
      "oppon": 2262,
      "grab": 2263,
      "sition": 2264,
      "rack": 2265,
      "raft": 2266,
      "oney": 2267,
      "sell": 2268,
      "bran": 2269,
      "poss": 2270,
      "poster": 2271,
      "position": 2272,
      "fix": 2273,
      "skirts": 2274,
      "pajam": 2275,
      "pavement": 2276,
      "bage": 2277,
      "cones": 2278,
      "camoufla": 2279,
      "fabric": 2280,
      "del": 2281,
      "tory": 2282,
      "bandan": 2283,
      "windows": 2284,
      "wheelchair": 2285,
      "denim": 2286,
      "fenced": 2287,
      "balancing": 2288,
      "luggage": 2289,
      "saxophone": 2290,
      "tongue": 2291,
      "fashion": 2292,
      "inflatable": 2293,
      "camouflage": 2294,
      "aks": 2295,
      "cool": 2296,
      "flight": 2297,
      "mmer": 2298,
      "tro": 2299,
      "ane": 2300,
      "refe": 2301,
      "ork": 2302,
      "escal": 2303,
      "char": 2304,
      "test": 2305,
      "meet": 2306,
      "beam": 2307,
      "shade": 2308,
      "buying": 2309,
      "amer": 2310,
      "juggling": 2311,
      "tractor": 2312,
      "pipe": 2313,
      "eats": 2314,
      "tops": 2315,
      "fast": 2316,
      "married": 2317,
      "walls": 2318,
      "flor": 2319,
      "swimsuit": 2320,
      "tyard": 2321,
      "floating": 2322,
      "rollers": 2323,
      "motorcycles": 2324,
      "courtyard": 2325,
      "laughs": 2326,
      "kiss": 2327,
      "railroad": 2328,
      "leading": 2329,
      "goalie": 2330,
      "ized": 2331,
      "raised": 2332,
      "finger": 2333,
      "frame": 2334,
      "image": 2335,
      "skinned": 2336,
      "professional": 2337,
      "bottom": 2338,
      "cue": 2339,
      "fir": 2340,
      "fold": 2341,
      "lines": 2342,
      "my": 2343,
      "map": 2344,
      "mix": 2345,
      "spo": 2346,
      "tar": 2347,
      "wk": 2348,
      "wel": 2349,
      "oustic": 2350,
      "toss": 2351,
      "eds": 2352,
      "rac": 2353,
      "rists": 2354,
      "shown": 2355,
      "socks": 2356,
      "bucking": 2357,
      "tiple": 2358,
      "carpet": 2359,
      "achu": 2360,
      "backwards": 2361,
      "six": 2362,
      "riders": 2363,
      "tube": 2364,
      "action": 2365,
      "acoustic": 2366,
      "trans": 2367,
      "ggy": 2368,
      "sail": 2369,
      "plant": 2370,
      "speak": 2371,
      "towel": 2372,
      "float": 2373,
      "musician": 2374,
      "ages": 2375,
      "firefight": 2376,
      "eved": 2377,
      "marketplace": 2378,
      "casu": 2379,
      "carriage": 2380,
      "garbage": 2381,
      "jerseys": 2382,
      "happily": 2383,
      "entertain": 2384,
      "cheering": 2385,
      "relax": 2386,
      "stretched": 2387,
      "soldier": 2388,
      "soldiers": 2389,
      "touching": 2390,
      "tools": 2391,
      "goods": 2392,
      "Dog": 2393,
      "peace": 2394,
      "hurdle": 2395,
      "scaffolding": 2396,
      "suspended": 2397,
      "mustach": 2398,
      "Santa": 2399,
      "either": 2400,
      "pajamas": 2401,
      "bandanna": 2402,
      "american": 2403,
      "floral": 2404,
      "rollersk": 2405,
      "At": 2406,
      "boun": 2407,
      "da": 2408,
      "egg": 2409,
      "emer": 2410,
      "fans": 2411,
      "ging": 2412,
      "hers": 2413,
      "hay": 2414,
      "hones": 2415,
      "if": 2416,
      "oc": 2417,
      "sal": 2418,
      "ze": 2419,
      "invol": 2420,
      "thumb": 2421,
      "isher": 2422,
      "orn": 2423,
      "chop": 2424,
      "gri": 2425,
      "plaza": 2426,
      "ics": 2427,
      "doctor": 2428,
      "bling": 2429,
      "coach": 2430,
      "mpet": 2431,
      "airport": 2432,
      "living": 2433,
      "broom": 2434,
      "parachu": 2435,
      "rubb": 2436,
      "snack": 2437,
      "lymp": 2438,
      "act": 2439,
      "acting": 2440,
      "stacle": 2441,
      "odd": 2442,
      "ations": 2443,
      "Seven": 2444,
      "colle": 2445,
      "paints": 2446,
      "underwater": 2447,
      "corn": 2448,
      "barrel": 2449,
      "welding": 2450,
      "sleeved": 2451,
      "obstacle": 2452,
      "desc": 2453,
      "serving": 2454,
      "backpacks": 2455,
      "stove": 2456,
      "landscape": 2457,
      "dining": 2458,
      "animals": 2459,
      "kneels": 2460,
      "bubble": 2461,
      "hooded": 2462,
      "athletic": 2463,
      "White": 2464,
      "caught": 2465,
      "magazine": 2466,
      "rugby": 2467,
      "advertisement": 2468,
      "Male": 2469,
      "escalator": 2470,
      "Ar": 2471,
      "Cr": 2472,
      "Che": 2473,
      "German": 2474,
      "cling": 2475,
      "free": 2476,
      "money": 2477,
      "nu": 2478,
      "sid": 2479,
      "vy": 2480,
      "vic": 2481,
      "inters": 2482,
      "rests": 2483,
      "iron": 2484,
      "heels": 2485,
      "cere": 2486,
      "liqu": 2487,
      "neon": 2488,
      "amuse": 2489,
      "runners": 2490,
      "thrown": 2491,
      "tery": 2492,
      "mobi": 2493,
      "pige": 2494,
      "hawk": 2495,
      "bending": 2496,
      "ropes": 2497,
      "ffy": 2498,
      "jockey": 2499,
      "climber": 2500,
      "exer": 2501,
      "weight": 2502,
      "trumpet": 2503,
      "drive": 2504,
      "polka": 2505,
      "shaw": 2506,
      "casian": 2507,
      "rollerbla": 2508,
      "seems": 2509,
      "brushing": 2510,
      "pony": 2511,
      "neckla": 2512,
      "checkered": 2513,
      "decorated": 2514,
      "operating": 2515,
      "examining": 2516,
      "chestra": 2517,
      "participating": 2518,
      "student": 2519,
      "gravel": 2520,
      "half": 2521,
      "shaped": 2522,
      "referee": 2523,
      "grilling": 2524,
      "amusement": 2525,
      "Jo": 2526,
      "Lo": 2527,
      "Mo": 2528,
      "York": 2529,
      "aw": 2530,
      "cone": 2531,
      "cyclists": 2532,
      "ech": 2533,
      "fle": 2534,
      "gas": 2535,
      "hy": 2536,
      "hound": 2537,
      "jung": 2538,
      "pine": 2539,
      "rout": 2540,
      "rowing": 2541,
      "spa": 2542,
      "warm": 2543,
      "ye": 2544,
      "youth": 2545,
      "zer": 2546,
      "thin": 2547,
      "ars": 2548,
      "hitting": 2549,
      "wire": 2550,
      "wide": 2551,
      "order": 2552,
      "orchestra": 2553,
      "gestu": 2554,
      "beg": 2555,
      "ribb": 2556,
      "shed": 2557,
      "frisbee": 2558,
      "loc": 2559,
      "ilt": 2560,
      "throom": 2561,
      "feeding": 2562,
      "bathroom": 2563,
      "dio": 2564,
      "tum": 2565,
      "things": 2566,
      "model": 2567,
      "wagon": 2568,
      "pull": 2569,
      "headscarf": 2570,
      "haircut": 2571,
      "sport": 2572,
      "pedestrians": 2573,
      "camel": 2574,
      "studio": 2575,
      "ends": 2576,
      "benches": 2577,
      "sandwi": 2578,
      "sets": 2579,
      "summer": 2580,
      "sticking": 2581,
      "dump": 2582,
      "compete": 2583,
      "turning": 2584,
      "bank": 2585,
      "boxing": 2586,
      "attempt": 2587,
      "practice": 2588,
      "vehicles": 2589,
      "craft": 2590,
      "photographs": 2591,
      "patter": 2592,
      "protest": 2593,
      "muddy": 2594,
      "vision": 2595,
      "individual": 2596,
      "crouches": 2597,
      "candy": 2598,
      "control": 2599,
      "harness": 2600,
      "print": 2601,
      "reflec": 2602,
      "hallway": 2603,
      "knit": 2604,
      "heart": 2605,
      "presentation": 2606,
      "teacher": 2607,
      "recei": 2608,
      "excited": 2609,
      "sharing": 2610,
      "Japanese": 2611,
      "opponent": 2612,
      "possi": 2613,
      "mobile": 2614,
      "exerc": 2615,
      "jungle": 2616,
      "Ho": 2617,
      "Mar": 2618,
      "Olymp": 2619,
      "ais": 2620,
      "ded": 2621,
      "een": 2622,
      "eli": 2623,
      "ext": 2624,
      "ig": 2625,
      "native": 2626,
      "pers": 2627,
      "sack": 2628,
      "sink": 2629,
      "xi": 2630,
      "you": 2631,
      "yhound": 2632,
      "iny": 2633,
      "inten": 2634,
      "inery": 2635,
      "only": 2636,
      "aters": 2637,
      "start": 2638,
      "also": 2639,
      "etrack": 2640,
      "racer": 2641,
      "ceiling": 2642,
      "neigh": 2643,
      "herd": 2644,
      "ility": 2645,
      "tiv": 2646,
      "tile": 2647,
      "jumpsuit": 2648,
      "rench": 2649,
      "sized": 2650,
      "cleans": 2651,
      "crash": 2652,
      "mom": 2653,
      "trop": 2654,
      "jewel": 2655,
      "doors": 2656,
      "muzz": 2657,
      "guitars": 2658,
      "elf": 2659,
      "gged": 2660,
      "skateboards": 2661,
      "speech": 2662,
      "bars": 2663,
      "cess": 2664,
      "ously": 2665,
      "machinery": 2666,
      "surrounding": 2667,
      "viewing": 2668,
      "policeman": 2669,
      "focu": 2670,
      "snowboarding": 2671,
      "garage": 2672,
      "fruits": 2673,
      "sporting": 2674,
      "slides": 2675,
      "drummer": 2676,
      "turns": 2677,
      "loading": 2678,
      "patio": 2679,
      "eleph": 2680,
      "passengers": 2681,
      "motocross": 2682,
      "Brown": 2683,
      "figure": 2684,
      "barbecue": 2685,
      "sword": 2686,
      "racetrack": 2687,
      "mustache": 2688,
      "BM": 2689,
      "Lad": 2690,
      "On": 2691,
      "aqu": 2692,
      "dread": 2693,
      "ection": 2694,
      "ience": 2695,
      "mor": 2696,
      "moun": 2697,
      "nas": 2698,
      "narrow": 2699,
      "prop": 2700,
      "rough": 2701,
      "song": 2702,
      "spi": 2703,
      "twi": 2704,
      "ump": 2705,
      "wad": 2706,
      "erial": 2707,
      "itten": 2708,
      "irth": 2709,
      "oping": 2710,
      "assi": 2711,
      "pee": 2712,
      "hosp": 2713,
      "blow": 2714,
      "rier": 2715,
      "cot": 2716,
      "come": 2717,
      "tag": 2718,
      "seum": 2719,
      "sells": 2720,
      "bushes": 2721,
      "locks": 2722,
      "brow": 2723,
      "dim": 2724,
      "boardwalk": 2725,
      "puck": 2726,
      "scre": 2727,
      "headband": 2728,
      "ways": 2729,
      "jects": 2730,
      "museum": 2731,
      "surg": 2732,
      "cape": 2733,
      "baskets": 2734,
      "exhi": 2735,
      "horseback": 2736,
      "nail": 2737,
      "hillside": 2738,
      "leaf": 2739,
      "leaving": 2740,
      "bikers": 2741,
      "paren": 2742,
      "borhood": 2743,
      "stopped": 2744,
      "petting": 2745,
      "electronic": 2746,
      "presen": 2747,
      "shoot": 2748,
      "observe": 2749,
      "member": 2750,
      "super": 2751,
      "lane": 2752,
      "discussion": 2753,
      "astern": 2754,
      "dune": 2755,
      "entrance": 2756,
      "Blond": 2757,
      "beverage": 2758,
      "ATV": 2759,
      "first": 2760,
      "herself": 2761,
      "ornate": 2762,
      "Crowd": 2763,
      "intersection": 2764,
      "ceremon": 2765,
      "routine": 2766,
      "sandwich": 2767,
      "possibly": 2768,
      "hospital": 2769,
      "Fire": 2770,
      "Lar": 2771,
      "She": 2772,
      "Stu": 2773,
      "aking": 2774,
      "ahead": 2775,
      "african": 2776,
      "clap": 2777,
      "clay": 2778,
      "loung": 2779,
      "nur": 2780,
      "oon": 2781,
      "pherd": 2782,
      "tes": 2783,
      "stones": 2784,
      "strap": 2785,
      "lamp": 2786,
      "wild": 2787,
      "iddle": 2788,
      "dot": 2789,
      "hoops": 2790,
      "cobble": 2791,
      "seas": 2792,
      "seats": 2793,
      "baller": 2794,
      "lip": 2795,
      "outstretched": 2796,
      "tight": 2797,
      "skates": 2798,
      "bill": 2799,
      "cond": 2800,
      "condu": 2801,
      "pig": 2802,
      "pipes": 2803,
      "maroon": 2804,
      "helps": 2805,
      "crew": 2806,
      "microphones": 2807,
      "navy": 2808,
      "motorcyclist": 2809,
      "akers": 2810,
      "pieces": 2811,
      "folding": 2812,
      "smoke": 2813,
      "nets": 2814,
      "squatting": 2815,
      "bottles": 2816,
      "ference": 2817,
      "silhou": 2818,
      "buckets": 2819,
      "tattooed": 2820,
      "fencing": 2821,
      "cardboard": 2822,
      "mixing": 2823,
      "indoors": 2824,
      "celebrating": 2825,
      "dishes": 2826,
      "tails": 2827,
      "complete": 2828,
      "fancy": 2829,
      "mostly": 2830,
      "patient": 2831,
      "puppy": 2832,
      "container": 2833,
      "villa": 2834,
      "rubber": 2835,
      "neighborhood": 2836,
      "Lady": 2837,
      "irthday": 2838,
      "Large": 2839,
      "Mu": 2840,
      "Stre": 2841,
      "ai": 2842,
      "bam": 2843,
      "cru": 2844,
      "fer": 2845,
      "gall": 2846,
      "ior": 2847,
      "kite": 2848,
      "nit": 2849,
      "os": 2850,
      "pop": 2851,
      "patch": 2852,
      "punch": 2853,
      "rural": 2854,
      "spar": 2855,
      "intent": 2856,
      "ants": 2857,
      "lection": 2858,
      "stro": 2859,
      "stra": 2860,
      "stares": 2861,
      "labor": 2862,
      "wife": 2863,
      "cked": 2864,
      "grand": 2865,
      "tel": 2866,
      "tex": 2867,
      "tered": 2868,
      "blows": 2869,
      "bean": 2870,
      "rick": 2871,
      "bul": 2872,
      "buy": 2873,
      "loye": 2874,
      "ames": 2875,
      "amid": 2876,
      "tially": 2877,
      "brary": 2878,
      "apple": 2879,
      "carving": 2880,
      "paras": 2881,
      "backs": 2882,
      "formation": 2883,
      "handstand": 2884,
      "activ": 2885,
      "travel": 2886,
      "more": 2887,
      "moment": 2888,
      "pump": 2889,
      "spinning": 2890,
      "got": 2891,
      "flops": 2892,
      "guitarist": 2893,
      "cuts": 2894,
      "stripes": 2895,
      "merch": 2896,
      "uniformed": 2897,
      "quet": 2898,
      "chee": 2899,
      "swimmer": 2900,
      "storefront": 2901,
      "coloring": 2902,
      "hugs": 2903,
      "firetruck": 2904,
      "balance": 2905,
      "newly": 2906,
      "item": 2907,
      "wheels": 2908,
      "calf": 2909,
      "gency": 2910,
      "monstr": 2911,
      "smokes": 2912,
      "flipping": 2913,
      "born": 2914,
      "scenery": 2915,
      "medical": 2916,
      "crafts": 2917,
      "bowls": 2918,
      "cheerleaders": 2919,
      "tattoos": 2920,
      "funny": 2921,
      "spraying": 2922,
      "stretching": 2923,
      "ethnic": 2924,
      "crouching": 2925,
      "comfor": 2926,
      "great": 2927,
      "cricket": 2928,
      "sleeveless": 2929,
      "choir": 2930,
      "inspecting": 2931,
      "belt": 2932,
      "grinding": 2933,
      "apartment": 2934,
      "scuba": 2935,
      "vacu": 2936,
      "isherman": 2937,
      "reflective": 2938,
      "dreadlocks": 2939,
      "Street": 2940,
      "niture": 2941,
      "Bu": 2942,
      "Le": 2943,
      "Middle": 2944,
      "Ro": 2945,
      "Run": 2946,
      "Spe": 2947,
      "US": 2948,
      "birthday": 2949,
      "cong": 2950,
      "ky": 2951,
      "pri": 2952,
      "rons": 2953,
      "sen": 2954,
      "sad": 2955,
      "tour": 2956,
      "zing": 2957,
      "lear": 2958,
      "organ": 2959,
      "tee": 2960,
      "unicycle": 2961,
      "races": 2962,
      "urope": 2963,
      "lifting": 2964,
      "library": 2965,
      "ilts": 2966,
      "ties": 2967,
      "tied": 2968,
      "bris": 2969,
      "partially": 2970,
      "simil": 2971,
      "crane": 2972,
      "boards": 2973,
      "conference": 2974,
      "moder": 2975,
      "spread": 2976,
      "derby": 2977,
      "ondon": 2978,
      "dead": 2979,
      "demonstr": 2980,
      "horn": 2981,
      "colum": 2982,
      "plu": 2983,
      "speed": 2984,
      "exper": 2985,
      "vig": 2986,
      "motorbike": 2987,
      "objects": 2988,
      "name": 2989,
      "naked": 2990,
      "balding": 2991,
      "dust": 2992,
      "duck": 2993,
      "nighttime": 2994,
      "stairway": 2995,
      "turned": 2996,
      "rainy": 2997,
      "banner": 2998,
      "calm": 2999,
      "gymnas": 3000,
      "computers": 3001,
      "batter": 3002,
      "listens": 3003,
      "letes": 3004,
      "Girls": 3005,
      "vegetable": 3006,
      "raises": 3007,
      "sofa": 3008,
      "chick": 3009,
      "candles": 3010,
      "balances": 3011,
      "greyhound": 3012,
      "following": 3013,
      "gymnastic": 3014,
      "discussing": 3015,
      "furniture": 3016,
      "fluffy": 3017,
      "broken": 3018,
      "houses": 3019,
      "approaching": 3020,
      "moped": 3021,
      "folded": 3022,
      "pigeons": 3023,
      "BMX": 3024,
      "dimly": 3025,
      "intently": 3026,
      "similar": 3027,
      "gymnasium": 3028,
      "12": 3029,
      "20": 3030,
      "ather": 3031,
      "ail": 3032,
      "bby": 3033,
      "bass": 3034,
      "cop": 3035,
      "cid": 3036,
      "clad": 3037,
      "dough": 3038,
      "eu": 3039,
      "eath": 3040,
      "ible": 3041,
      "jet": 3042,
      "kni": 3043,
      "om": 3044,
      "ocular": 3045,
      "pping": 3046,
      "papers": 3047,
      "sla": 3048,
      "sne": 3049,
      "slight": 3050,
      "zen": 3051,
      "inte": 3052,
      "arch": 3053,
      "hits": 3054,
      "theater": 3055,
      "ase": 3056,
      "ica": 3057,
      "doll": 3058,
      "unk": 3059,
      "adjust": 3060,
      "forward": 3061,
      "share": 3062,
      "taxi": 3063,
      "sem": 3064,
      "secur": 3065,
      "groups": 3066,
      "tist": 3067,
      "sive": 3068,
      "bleach": 3069,
      "boarder": 3070,
      "smaller": 3071,
      "motion": 3072,
      "push": 3073,
      "pies": 3074,
      "pizz": 3075,
      "beneath": 3076,
      "cameras": 3077,
      "castle": 3078,
      "ending": 3079,
      "merous": 3080,
      "pret": 3081,
      "carry": 3082,
      "plates": 3083,
      "barber": 3084,
      "teammate": 3085,
      "photos": 3086,
      "vie": 3087,
      "crosses": 3088,
      "training": 3089,
      "flowered": 3090,
      "catcher": 3091,
      "fireman": 3092,
      "note": 3093,
      "shaved": 3094,
      "rainbow": 3095,
      "called": 3096,
      "cook": 3097,
      "stomach": 3098,
      "point": 3099,
      "starting": 3100,
      "material": 3101,
      "trailer": 3102,
      "borne": 3103,
      "paddle": 3104,
      "wrestle": 3105,
      "television": 3106,
      "raising": 3107,
      "amongst": 3108,
      "observing": 3109,
      "shovels": 3110,
      "shades": 3111,
      "advertising": 3112,
      "follows": 3113,
      "participate": 3114,
      "While": 3115,
      "directions": 3116,
      "binocular": 3117,
      "engaged": 3118,
      "branch": 3119,
      "spoon": 3120,
      "college": 3121,
      "liquid": 3122,
      "necklace": 3123,
      "space": 3124,
      "ribbon": 3125,
      "jewelry": 3126,
      "elephant": 3127,
      "lounging": 3128,
      "village": 3129,
      "security": 3130,
      "City": 3131,
      "Cau": 3132,
      "Fe": 3133,
      "London": 3134,
      "Mul": 3135,
      "Red": 3136,
      "ax": 3137,
      "bad": 3138,
      "bound": 3139,
      "cree": 3140,
      "eled": 3141,
      "fted": 3142,
      "fisherman": 3143,
      "gers": 3144,
      "gown": 3145,
      "ia": 3146,
      "ike": 3147,
      "lst": 3148,
      "mis": 3149,
      "mates": 3150,
      "mini": 3151,
      "nature": 3152,
      "oes": 3153,
      "plo": 3154,
      "sor": 3155,
      "ut": 3156,
      "usi": 3157,
      "vo": 3158,
      "win": 3159,
      "thusi": 3160,
      "erleaders": 3161,
      "oned": 3162,
      "sters": 3163,
      "enthusi": 3164,
      "ites": 3165,
      "itors": 3166,
      "ounge": 3167,
      "whilst": 3168,
      "tech": 3169,
      "peering": 3170,
      "redheaded": 3171,
      "ador": 3172,
      "admir": 3173,
      "shining": 3174,
      "airborne": 3175,
      "bystand": 3176,
      "downtown": 3177,
      "upon": 3178,
      "keep": 3179,
      "poor": 3180,
      "rubs": 3181,
      "biking": 3182,
      "silly": 3183,
      "terrain": 3184,
      "consi": 3185,
      "angel": 3186,
      "tricycle": 3187,
      "fake": 3188,
      "tents": 3189,
      "job": 3190,
      "quick": 3191,
      "shops": 3192,
      "aud": 3193,
      "gift": 3194,
      "trucks": 3195,
      "caps": 3196,
      "Soccer": 3197,
      "newborn": 3198,
      "machines": 3199,
      "shakes": 3200,
      "factory": 3201,
      "interacting": 3202,
      "rings": 3203,
      "wheelbar": 3204,
      "scarves": 3205,
      "steel": 3206,
      "pottery": 3207,
      "leads": 3208,
      "glove": 3209,
      "photographed": 3210,
      "employe": 3211,
      "protesting": 3212,
      "closeup": 3213,
      "guns": 3214,
      "splashes": 3215,
      "cards": 3216,
      "engine": 3217,
      "trunk": 3218,
      "chefs": 3219,
      "follow": 3220,
      "repairs": 3221,
      "pillow": 3222,
      "weaving": 3223,
      "passenger": 3224,
      "sprinkler": 3225,
      "donkey": 3226,
      "tourists": 3227,
      "charac": 3228,
      "casual": 3229,
      "Cheerleaders": 3230,
      "receiving": 3231,
      "aisle": 3232,
      "wading": 3233,
      "scream": 3234,
      "Students": 3235,
      "cobblestone": 3236,
      "ballerina": 3237,
      "billboard": 3238,
      "straight": 3239,
      "congre": 3240,
      "modern": 3241,
      "slightly": 3242,
      "binoculars": 3243,
      "admiring": 3244,
      "Ad": 3245,
      "Europe": 3246,
      "Mc": 3247,
      "Pol": 3248,
      "Wal": 3249,
      "bing": 3250,
      "craw": 3251,
      "dro": 3252,
      "glid": 3253,
      "imp": 3254,
      "iff": 3255,
      "kin": 3256,
      "lounge": 3257,
      "mun": 3258,
      "may": 3259,
      "mmed": 3260,
      "oven": 3261,
      "pir": 3262,
      "pay": 3263,
      "rows": 3264,
      "sque": 3265,
      "tas": 3266,
      "ware": 3267,
      "xy": 3268,
      "incl": 3269,
      "leot": 3270,
      "arc": 3271,
      "tomat": 3272,
      "ets": 3273,
      "eter": 3274,
      "opes": 3275,
      "places": 3276,
      "robat": 3277,
      "been": 3278,
      "cock": 3279,
      "comb": 3280,
      "comes": 3281,
      "coaster": 3282,
      "tape": 3283,
      "tage": 3284,
      "lips": 3285,
      "lifted": 3286,
      "social": 3287,
      "ticket": 3288,
      "aps": 3289,
      "appl": 3290,
      "keys": 3291,
      "carts": 3292,
      "waterfront": 3293,
      "waterway": 3294,
      "filling": 3295,
      "world": 3296,
      "sniff": 3297,
      "feat": 3298,
      "dig": 3299,
      "overhead": 3300,
      "contest": 3301,
      "handle": 3302,
      "ately": 3303,
      "science": 3304,
      "debris": 3305,
      "tending": 3306,
      "checks": 3307,
      "sailing": 3308,
      "swimmers": 3309,
      "tower": 3310,
      "barrier": 3311,
      "express": 3312,
      "hug": 3313,
      "drill": 3314,
      "dusk": 3315,
      "mess": 3316,
      "messy": 3317,
      "tires": 3318,
      "lecture": 3319,
      "praying": 3320,
      "converse": 3321,
      "official": 3322,
      "cups": 3323,
      "landing": 3324,
      "flips": 3325,
      "paddles": 3326,
      "entering": 3327,
      "butter": 3328,
      "portra": 3329,
      "wings": 3330,
      "telephone": 3331,
      "gundy": 3332,
      "observes": 3333,
      "waterski": 3334,
      "laptops": 3335,
      "shadow": 3336,
      "examines": 3337,
      "burgundy": 3338,
      "lanter": 3339,
      "commun": 3340,
      "attention": 3341,
      "customer": 3342,
      "guards": 3343,
      "groceries": 3344,
      "flute": 3345,
      "teaching": 3346,
      "chainsaw": 3347,
      "studying": 3348,
      "bundle": 3349,
      "spotted": 3350,
      "meeting": 3351,
      "transport": 3352,
      "firefighters": 3353,
      "eggs": 3354,
      "thumbs": 3355,
      "gestures": 3356,
      "tumn": 3357,
      "tropical": 3358,
      "browsing": 3359,
      "ceremony": 3360,
      "rickshaw": 3361,
      "sneakers": 3362,
      "bleachers": 3363,
      "pizza": 3364,
      "pretty": 3365,
      "Caucasian": 3366,
      "Multiple": 3367,
      "consisting": 3368,
      "wheelbarrow": 3369,
      "Police": 3370,
      "leotard": 3371,
      "Don": 3372,
      "It": 3373,
      "Sk": 3374,
      "Su": 3375,
      "Tou": 3376,
      "biting": 3377,
      "bite": 3378,
      "call": 3379,
      "fit": 3380,
      "fed": 3381,
      "games": 3382,
      "hen": 3383,
      "iet": 3384,
      "ied": 3385,
      "iment": 3386,
      "ja": 3387,
      "mming": 3388,
      "poo": 3389,
      "rin": 3390,
      "rad": 3391,
      "shel": 3392,
      "trol": 3393,
      "ument": 3394,
      "ws": 3395,
      "wares": 3396,
      "ino": 3397,
      "anad": 3398,
      "ret": 3399,
      "recl": 3400,
      "arn": 3401,
      "arter": 3402,
      "oud": 3403,
      "andise": 3404,
      "attra": 3405,
      "stare": 3406,
      "still": 3407,
      "lacross": 3408,
      "wires": 3409,
      "ora": 3410,
      "chess": 3411,
      "teal": 3412,
      "rod": 3413,
      "hotel": 3414,
      "blur": 3415,
      "shirted": 3416,
      "ller": 3417,
      "cep": 3418,
      "covers": 3419,
      "semi": 3420,
      "loom": 3421,
      "bush": 3422,
      "love": 3423,
      "main": 3424,
      "watermel": 3425,
      "juice": 3426,
      "fier": 3427,
      "backdrop": 3428,
      "skaters": 3429,
      "bies": 3430,
      "crown": 3431,
      "snowsuit": 3432,
      "diver": 3433,
      "overweight": 3434,
      "tug": 3435,
      "ults": 3436,
      "conven": 3437,
      "handing": 3438,
      "acrobat": 3439,
      "tray": 3440,
      "movie": 3441,
      "ions": 3442,
      "heading": 3443,
      "def": 3444,
      "defen": 3445,
      "mart": 3446,
      "suitcase": 3447,
      "performers": 3448,
      "cause": 3449,
      "bricks": 3450,
      "brief": 3451,
      "horiz": 3452,
      "unique": 3453,
      "quo": 3454,
      "forehead": 3455,
      "wheeli": 3456,
      "give": 3457,
      "nament": 3458,
      "firemen": 3459,
      "bagpipes": 3460,
      "umin": 3461,
      "angle": 3462,
      "serves": 3463,
      "paperwork": 3464,
      "banan": 3465,
      "banjo": 3466,
      "ities": 3467,
      "knees": 3468,
      "monument": 3469,
      "falls": 3470,
      "venue": 3471,
      "listen": 3472,
      "stops": 3473,
      "vendors": 3474,
      "cray": 3475,
      "Boys": 3476,
      "newspapers": 3477,
      "alleyway": 3478,
      "wrestler": 3479,
      "blankets": 3480,
      "seem": 3481,
      "countryside": 3482,
      "izing": 3483,
      "visiting": 3484,
      "visible": 3485,
      "scooters": 3486,
      "sweeps": 3487,
      "kayaks": 3488,
      "shadows": 3489,
      "touches": 3490,
      "attending": 3491,
      "tackle": 3492,
      "strange": 3493,
      "story": 3494,
      "pillows": 3495,
      "scaffold": 3496,
      "inspects": 3497,
      "beverages": 3498,
      "boulder": 3499,
      "tourist": 3500,
      "yoga": 3501,
      "target": 3502,
      "tossing": 3503,
      "emergency": 3504,
      "sides": 3505,
      "Joh": 3506,
      "patterned": 3507,
      "exercise": 3508,
      "umpire": 3509,
      "exhibit": 3510,
      "presenting": 3511,
      "clapping": 3512,
      "pigtails": 3513,
      "bamboo": 3514,
      "beanie": 3515,
      "merchandise": 3516,
      "chicken": 3517,
      "gymnastics": 3518,
      "knife": 3519,
      "bystanders": 3520,
      "applying": 3521,
      "Donal": 3522,
      "trolley": 3523,
      "lacrosse": 3524,
      "wheelie": 3525,
      "Bear": 3526,
      "Ca": 3527,
      "Col": 3528,
      "El": 3529,
      "En": 3530,
      "Mex": 3531,
      "Play": 3532,
      "Teen": 3533,
      "We": 3534,
      "cil": 3535,
      "cans": 3536,
      "centr": 3537,
      "dad": 3538,
      "done": 3539,
      "eight": 3540,
      "fic": 3541,
      "link": 3542,
      "mur": 3543,
      "mower": 3544,
      "nam": 3545,
      "plies": 3546,
      "power": 3547,
      "ris": 3548,
      "rice": 3549,
      "tiny": 3550,
      "usu": 3551,
      "vin": 3552,
      "yarn": 3553,
      "inju": 3554,
      "ank": 3555,
      "any": 3556,
      "ings": 3557,
      "remo": 3558,
      "retri": 3559,
      "maneu": 3560,
      "stir": 3561,
      "lared": 3562,
      "chan": 3563,
      "christmas": 3564,
      "chatting": 3565,
      "assem": 3566,
      "placing": 3567,
      "placed": 3568,
      "tea": 3569,
      "played": 3570,
      "playfully": 3571,
      "ersby": 3572,
      "here": 3573,
      "unusu": 3574,
      "blind": 3575,
      "meas": 3576,
      "bead": 3577,
      "belong": 3578,
      "rized": 3579,
      "separ": 3580,
      "section": 3581,
      "second": 3582,
      "lifts": 3583,
      "soap": 3584,
      "soda": 3585,
      "lose": 3586,
      "logs": 3587,
      "ama": 3588,
      "tired": 3589,
      "tights": 3590,
      "bron": 3591,
      "pocket": 3592,
      "jud": 3593,
      "gathers": 3594,
      "larger": 3595,
      "snowshoes": 3596,
      "dives": 3597,
      "tux": 3598,
      "handrail": 3599,
      "watched": 3600,
      "accompan": 3601,
      "traveling": 3602,
      "mock": 3603,
      "wake": 3604,
      "picks": 3605,
      "sunlight": 3606,
      "bicy": 3607,
      "mug": 3608,
      "shorel": 3609,
      "cage": 3610,
      "gger": 3611,
      "joy": 3612,
      "quarter": 3613,
      "underwear": 3614,
      "trip": 3615,
      "swimsuits": 3616,
      "process": 3617,
      "explo": 3618,
      "slic": 3619,
      "crossed": 3620,
      "floats": 3621,
      "weap": 3622,
      "lighted": 3623,
      "hut": 3624,
      "huddle": 3625,
      "treat": 3626,
      "navig": 3627,
      "motorcyclists": 3628,
      "even": 3629,
      "skiers": 3630,
      "ballet": 3631,
      "highway": 3632,
      "athletes": 3633,
      "opens": 3634,
      "dusty": 3635,
      "anges": 3636,
      "cello": 3637,
      "news": 3638,
      "turquo": 3639,
      "cowboys": 3640,
      "planting": 3641,
      "rapids": 3642,
      "China": 3643,
      "potat": 3644,
      "medium": 3645,
      "homeless": 3646,
      "drawn": 3647,
      "closely": 3648,
      "practices": 3649,
      "multiple": 3650,
      "partment": 3651,
      "supplies": 3652,
      "camping": 3653,
      "celebration": 3654,
      "tackling": 3655,
      "printed": 3656,
      "syn": 3657,
      "repairing": 3658,
      "reflection": 3659,
      "finished": 3660,
      "laundro": 3661,
      "khakis": 3662,
      "elev": 3663,
      "puppies": 3664,
      "suspenders": 3665,
      "weather": 3666,
      "magazines": 3667,
      "motorized": 3668,
      "carefully": 3669,
      "farmer": 3670,
      "washer": 3671,
      "record": 3672,
      "itorium": 3673,
      "firefighter": 3674,
      "rollerskating": 3675,
      "salon": 3676,
      "involved": 3677,
      "parachute": 3678,
      "descent": 3679,
      "rollerblading": 3680,
      "ponytail": 3681,
      "location": 3682,
      "focused": 3683,
      "surgery": 3684,
      "parents": 3685,
      "cheek": 3686,
      "Runners": 3687,
      "learning": 3688,
      "2012": 3689,
      "adjusting": 3690,
      "Female": 3691,
      "creek": 3692,
      "auditorium": 3693,
      "screaming": 3694,
      "McDonal": 3695,
      "arcade": 3696,
      "shoreline": 3697,
      "turquoise": 3698,
      "laundromat": 3699,
      "00": 3700,
      "Am": 3701,
      "Band": 3702,
      "Coup": 3703,
      "Canad": 3704,
      "Close": 3705,
      "De": 3706,
      "Eld": 3707,
      "Ped": 3708,
      "Sm": 3709,
      "Squ": 3710,
      "TV": 3711,
      "Tex": 3712,
      "cul": 3713,
      "eastern": 3714,
      "fat": 3715,
      "floo": 3716,
      "fell": 3717,
      "late": 3718,
      "mit": 3719,
      "mill": 3720,
      "non": 3721,
      "overs": 3722,
      "ption": 3723,
      "pins": 3724,
      "ric": 3725,
      "rally": 3726,
      "spark": 3727,
      "tread": 3728,
      "va": 3729,
      "vas": 3730,
      "valley": 3731,
      "zes": 3732,
      "zens": 3733,
      "tho": 3734,
      "than": 3735,
      "rec": 3736,
      "reli": 3737,
      "erry": 3738,
      "lean": 3739,
      "legging": 3740,
      "ara": 3741,
      "arri": 3742,
      "hip": 3743,
      "hike": 3744,
      "hiding": 3745,
      "stall": 3746,
      "stilts": 3747,
      "launch": 3748,
      "laden": 3749,
      "ened": 3750,
      "ents": 3751,
      "will": 3752,
      "oranges": 3753,
      "opter": 3754,
      "gras": 3755,
      "earphones": 3756,
      "icy": 3757,
      "icopter": 3758,
      "blood": 3759,
      "raz": 3760,
      "racers": 3761,
      "rafting": 3762,
      "blazer": 3763,
      "riot": 3764,
      "coast": 3765,
      "fork": 3766,
      "lighting": 3767,
      "buff": 3768,
      "butch": 3769,
      "lock": 3770,
      "lobby": 3771,
      "walked": 3772,
      "timate": 3773,
      "upward": 3774,
      "pod": 3775,
      "pots": 3776,
      "posed": 3777,
      "juggles": 3778,
      "sideways": 3779,
      "skater": 3780,
      "indu": 3781,
      "single": 3782,
      "divers": 3783,
      "tutu": 3784,
      "ult": 3785,
      "frozen": 3786,
      "workout": 3787,
      "workshop": 3788,
      "headdress": 3789,
      "goat": 3790,
      "dec": 3791,
      "deli": 3792,
      "department": 3793,
      "march": 3794,
      "ctators": 3795,
      "torch": 3796,
      "cast": 3797,
      "roadside": 3798,
      "cute": 3799,
      "Asia": 3800,
      "cheese": 3801,
      "sau": 3802,
      "sage": 3803,
      "collared": 3804,
      "couples": 3805,
      "special": 3806,
      "tribal": 3807,
      "proje": 3808,
      "autumn": 3809,
      "whom": 3810,
      "creating": 3811,
      "ague": 3812,
      "human": 3813,
      "surfs": 3814,
      "shepherd": 3815,
      "canvas": 3816,
      "displaying": 3817,
      "displays": 3818,
      "passersby": 3819,
      "serve": 3820,
      "service": 3821,
      "artwork": 3822,
      "shape": 3823,
      "facility": 3824,
      "raining": 3825,
      "interview": 3826,
      "lecting": 3827,
      "cooks": 3828,
      "foli": 3829,
      "teens": 3830,
      "toddlers": 3831,
      "monitor": 3832,
      "raption": 3833,
      "numbers": 3834,
      "pads": 3835,
      "tively": 3836,
      "hotdog": 3837,
      "rooftop": 3838,
      "lens": 3839,
      "washes": 3840,
      "gaze": 3841,
      "gazes": 3842,
      "kayaking": 3843,
      "cycling": 3844,
      "decorative": 3845,
      "products": 3846,
      "crouched": 3847,
      "burning": 3848,
      "candle": 3849,
      "atory": 3850,
      "cloud": 3851,
      "celebrate": 3852,
      "contraption": 3853,
      "harvest": 3854,
      "trashcan": 3855,
      "furry": 3856,
      "finishing": 3857,
      "brother": 3858,
      "stepping": 3859,
      "sprayed": 3860,
      "belts": 3861,
      "approaches": 3862,
      "bouquet": 3863,
      "score": 3864,
      "chalkboard": 3865,
      "embracing": 3866,
      "branches": 3867,
      "fashioned": 3868,
      "speaker": 3869,
      "casually": 3870,
      "involving": 3871,
      "chopping": 3872,
      "driveway": 3873,
      "Olympics": 3874,
      "intenance": 3875,
      "twir": 3876,
      "silhouette": 3877,
      "Music": 3878,
      "gallery": 3879,
      "stroke": 3880,
      "amidst": 3881,
      "activity": 3882,
      "vacuu": 3883,
      "Roller": 3884,
      "Spectators": 3885,
      "experiment": 3886,
      "interesting": 3887,
      "quickly": 3888,
      "incline": 3889,
      "portrait": 3890,
      "transportation": 3891,
      "John": 3892,
      "Bearded": 3893,
      "injured": 3894,
      "retrie": 3895,
      "Closeup": 3896,
      "Elderly": 3897,
      "Pedestrians": 3898,
      "Square": 3899,
      "leggings": 3900,
      "Ba": 3901,
      "Be": 3902,
      "Bic": 3903,
      "DJ": 3904,
      "Eight": 3905,
      "Eastern": 3906,
      "Ha": 3907,
      "Photo": 3908,
      "School": 3909,
      "Ski": 3910,
      "Vari": 3911,
      "Wi": 3912,
      "ailing": 3913,
      "aband": 3914,
      "bbles": 3915,
      "cro": 3916,
      "eo": 3917,
      "eas": 3918,
      "esta": 3919,
      "every": 3920,
      "find": 3921,
      "gla": 3922,
      "harm": 3923,
      "ikers": 3924,
      "kilt": 3925,
      "now": 3926,
      "tress": 3927,
      "trench": 3928,
      "ues": 3929,
      "uts": 3930,
      "vine": 3931,
      "iner": 3932,
      "ination": 3933,
      "annel": 3934,
      "rele": 3935,
      "really": 3936,
      "arrange": 3937,
      "ouble": 3938,
      "ata": 3939,
      "ston": 3940,
      "sturing": 3941,
      "aling": 3942,
      "almost": 3943,
      "iss": 3944,
      "labe": 3945,
      "enti": 3946,
      "wig": 3947,
      "ldo": 3948,
      "orm": 3949,
      "ety": 3950,
      "chin": 3951,
      "chron": 3952,
      "chinese": 3953,
      "cherry": 3954,
      "opo": 3955,
      "edo": 3956,
      "grad": 3957,
      "ically": 3958,
      "menu": 3959,
      "domin": 3960,
      "peer": 3961,
      "unhappy": 3962,
      "gesturing": 3963,
      "blish": 3964,
      "adju": 3965,
      "mechan": 3966,
      "beret": 3967,
      "rifle": 3968,
      "mpy": 3969,
      "mple": 3970,
      "shiny": 3971,
      "tags": 3972,
      "sees": 3973,
      "lim": 3974,
      "built": 3975,
      "ney": 3976,
      "tiled": 3977,
      "tips": 3978,
      "smoo": 3979,
      "brass": 3980,
      "aprons": 3981,
      "jumper": 3982,
      "jumped": 3983,
      "pale": 3984,
      "ongo": 3985,
      "crates": 3986,
      "dive": 3987,
      "concentr": 3988,
      "handed": 3989,
      "wai": 3990,
      "waist": 3991,
      "scra": 3992,
      "scouts": 3993,
      "scent": 3994,
      "scien": 3995,
      "pilot": 3996,
      "staff": 3997,
      "tran": 3998,
      "guide": 3999,
      "bends": 4000,
      "helicopter": 4001,
      "eling": 4002,
      "cab": 4003,
      "cakes": 4004,
      "stump": 4005,
      "jogs": 4006,
      "quiet": 4007,
      "chewing": 4008,
      "ational": 4009,
      "sawing": 4010,
      "colate": 4011,
      "painter": 4012,
      "tripod": 4013,
      "types": 4014,
      "gie": 4015,
      "gious": 4016,
      "fishes": 4017,
      "hills": 4018,
      "noon": 4019,
      "highchair": 4020,
      "army": 4021,
      "ducks": 4022,
      "cellphones": 4023,
      "pathway": 4024,
      "turban": 4025,
      "raincoat": 4026,
      "boxer": 4027,
      "wheeler": 4028,
      "cooki": 4029,
      "illumin": 4030,
      "stoop": 4031,
      "America": 4032,
      "monkey": 4033,
      "afternoon": 4034,
      "bedroom": 4035,
      "tooth": 4036,
      "leader": 4037,
      "scenic": 4038,
      "writes": 4039,
      "breakdancing": 4040,
      "fighters": 4041,
      "brushes": 4042,
      "displayed": 4043,
      "gazing": 4044,
      "checkers": 4045,
      "circular": 4046,
      "decorations": 4047,
      "operates": 4048,
      "seagu": 4049,
      "clouds": 4050,
      "pencil": 4051,
      "dragging": 4052,
      "heavily": 4053,
      "known": 4054,
      "booths": 4055,
      "images": 4056,
      "cleaner": 4057,
      "caucasian": 4058,
      "stacked": 4059,
      "containing": 4060,
      "chocolate": 4061,
      "pinata": 4062,
      "bathtub": 4063,
      "strolls": 4064,
      "Blue": 4065,
      "designs": 4066,
      "recording": 4067,
      "grabs": 4068,
      "grabbing": 4069,
      "bouncing": 4070,
      "chopsticks": 4071,
      "Army": 4072,
      "vices": 4073,
      "rollerblades": 4074,
      "Lots": 4075,
      "Mohawk": 4076,
      "awning": 4077,
      "begins": 4078,
      "located": 4079,
      "dumpster": 4080,
      "pattern": 4081,
      "Hockey": 4082,
      "muzzle": 4083,
      "morning": 4084,
      "assist": 4085,
      "peeking": 4086,
      "strapped": 4087,
      "sparring": 4088,
      "bulldo": 4089,
      "parasailing": 4090,
      "pumpkin": 4091,
      "cident": 4092,
      "sorting": 4093,
      "Adults": 4094,
      "squee": 4095,
      "task": 4096,
      "sniffing": 4097,
      "featuring": 4098,
      "butterfly": 4099,
      "Skate": 4100,
      "horizon": 4101,
      "Elmo": 4102,
      "belongings": 4103,
      "bicycling": 4104,
      "quarterback": 4105,
      "synchron": 4106,
      "Couple": 4107,
      "Canadian": 4108,
      "Smiling": 4109,
      "Texas": 4110,
      "foliage": 4111,
      "Baby": 4112,
      "establish": 4113,
      "gradu": 4114,
      "adjusts": 4115,
      "11": 4116,
      "Cu": 4117,
      "Jack": 4118,
      "Li": 4119,
      "Loo": 4120,
      "Mi": 4121,
      "Mother": 4122,
      "NY": 4123,
      "No": 4124,
      "Native": 4125,
      "Par": 4126,
      "Pro": 4127,
      "Re": 4128,
      "Ru": 4129,
      "Rod": 4130,
      "Sh": 4131,
      "Shi": 4132,
      "Sur": 4133,
      "Seat": 4134,
      "Span": 4135,
      "Te": 4136,
      "Tim": 4137,
      "Vend": 4138,
      "Yellow": 4139,
      "ain": 4140,
      "bout": 4141,
      "cla": 4142,
      "chis": 4143,
      "cycle": 4144,
      "ders": 4145,
      "dam": 4146,
      "eag": 4147,
      "elabor": 4148,
      "gning": 4149,
      "hon": 4150,
      "hun": 4151,
      "had": 4152,
      "io": 4153,
      "ious": 4154,
      "kim": 4155,
      "lish": 4156,
      "ox": 4157,
      "osa": 4158,
      "powd": 4159,
      "rit": 4160,
      "ske": 4161,
      "tying": 4162,
      "vent": 4163,
      "won": 4164,
      "yell": 4165,
      "inner": 4166,
      "anti": 4167,
      "thou": 4168,
      "regi": 4169,
      "lem": 4170,
      "lets": 4171,
      "level": 4172,
      "league": 4173,
      "histor": 4174,
      "manne": 4175,
      "attered": 4176,
      "stay": 4177,
      "strolling": 4178,
      "stination": 4179,
      "alle": 4180,
      "toi": 4181,
      "oring": 4182,
      "esma": 4183,
      "ides": 4184,
      "ount": 4185,
      "asc": 4186,
      "plain": 4187,
      "icans": 4188,
      "peers": 4189,
      "hoe": 4190,
      "ray": 4191,
      "rabb": 4192,
      "because": 4193,
      "fort": 4194,
      "shine": 4195,
      "secu": 4196,
      "lion": 4197,
      "buried": 4198,
      "logo": 4199,
      "amount": 4200,
      "upset": 4201,
      "brant": 4202,
      "They": 4203,
      "maintenance": 4204,
      "sku": 4205,
      "inder": 4206,
      "signing": 4207,
      "feather": 4208,
      "babies": 4209,
      "boarding": 4210,
      "lasso": 4211,
      "elds": 4212,
      "conne": 4213,
      "accident": 4214,
      "mohawk": 4215,
      "scrubs": 4216,
      "fields": 4217,
      "jeep": 4218,
      "spon": 4219,
      "split": 4220,
      "spins": 4221,
      "destination": 4222,
      "mark": 4223,
      "marble": 4224,
      "tender": 4225,
      "flannel": 4226,
      "much": 4227,
      "midst": 4228,
      "panic": 4229,
      "cabin": 4230,
      "stuck": 4231,
      "Asians": 4232,
      "strial": 4233,
      "drant": 4234,
      "mercial": 4235,
      "underground": 4236,
      "purses": 4237,
      "speeding": 4238,
      "looked": 4239,
      "daytime": 4240,
      "shoppers": 4241,
      "darkened": 4242,
      "bartender": 4243,
      "teammates": 4244,
      "vibrant": 4245,
      "sure": 4246,
      "create": 4247,
      "wheeled": 4248,
      "sleep": 4249,
      "flash": 4250,
      "trains": 4251,
      "canal": 4252,
      "cannon": 4253,
      "skies": 4254,
      "skills": 4255,
      "packing": 4256,
      "packed": 4257,
      "package": 4258,
      "anging": 4259,
      "cigar": 4260,
      "turtle": 4261,
      "shaggy": 4262,
      "masks": 4263,
      "banners": 4264,
      "cases": 4265,
      "hardwood": 4266,
      "bridesma": 4267,
      "classic": 4268,
      "stocking": 4269,
      "fountains": 4270,
      "carrier": 4271,
      "forested": 4272,
      "doesn": 4273,
      "kisses": 4274,
      "filming": 4275,
      "stem": 4276,
      "arium": 4277,
      "tching": 4278,
      "clutte": 4279,
      "shower": 4280,
      "vending": 4281,
      "homemade": 4282,
      "ctors": 4283,
      "diner": 4284,
      "dinosa": 4285,
      "protect": 4286,
      "waiter": 4287,
      "draws": 4288,
      "cheerleading": 4289,
      "lent": 4290,
      "India": 4291,
      "hammock": 4292,
      "directing": 4293,
      "splashed": 4294,
      "sprays": 4295,
      "zzy": 4296,
      "stretches": 4297,
      "canoes": 4298,
      "product": 4299,
      "sledding": 4300,
      "clowns": 4301,
      "alloween": 4302,
      "chip": 4303,
      "gardening": 4304,
      "support": 4305,
      "barefooted": 4306,
      "commercial": 4307,
      "campfire": 4308,
      "tackled": 4309,
      "notes": 4310,
      "loaded": 4311,
      "Dogs": 4312,
      "draped": 4313,
      "stringed": 4314,
      "complex": 4315,
      "completed": 4316,
      "hammering": 4317,
      "napping": 4318,
      "pours": 4319,
      "skinny": 4320,
      "cries": 4321,
      "spotlight": 4322,
      "ATM": 4323,
      "lively": 4324,
      "Brit": 4325,
      "onica": 4326,
      "figures": 4327,
      "company": 4328,
      "companion": 4329,
      "scular": 4330,
      "mixer": 4331,
      "sailboat": 4332,
      "numerous": 4333,
      "victory": 4334,
      "hydrant": 4335,
      "gesture": 4336,
      "Olympic": 4337,
      "crashing": 4338,
      "aqua": 4339,
      "aquarium": 4340,
      "mounta": 4341,
      "surgical": 4342,
      "nails": 4343,
      "parent": 4344,
      "Firefighters": 4345,
      "Shepherd": 4346,
      "nurses": 4347,
      "conductor": 4348,
      "silhouet": 4349,
      "laboratory": 4350,
      "tournament": 4351,
      "columns": 4352,
      "notebook": 4353,
      "enthusia": 4354,
      "followed": 4355,
      "congreg": 4356,
      "warehouse": 4357,
      "xyl": 4358,
      "digital": 4359,
      "waterskiing": 4360,
      "lanterns": 4361,
      "communic": 4362,
      "crayons": 4363,
      "Cafe": 4364,
      "Mexican": 4365,
      "murky": 4366,
      "vintage": 4367,
      "unusual": 4368,
      "beads": 4369,
      "judges": 4370,
      "navigates": 4371,
      "potato": 4372,
      "treadmill": 4373,
      "religious": 4374,
      "industrial": 4375,
      "projector": 4376,
      "Hawai": 4377,
      "Various": 4378,
      "abandoned": 4379,
      "easel": 4380,
      "harmonica": 4381,
      "labeled": 4382,
      "opoly": 4383,
      "transit": 4384,
      "toothbrush": 4385,
      "squeezing": 4386,
      "Skateboarder": 4387,
      "synchronized": 4388,
      "establishment": 4389,
      "Spanish": 4390,
      "mannequ": 4391,
      "cluttered": 4392,
      "dinosaur": 4393,
      "Hawaiian": 4394,
      "10": 4395,
      "Au": 4396,
      "Ara": 4397,
      "Brun": 4398,
      "Base": 4399,
      "Car": 4400,
      "Dark": 4401,
      "Ex": 4402,
      "Food": 4403,
      "Gen": 4404,
      "Green": 4405,
      "Hu": 4406,
      "Jew": 4407,
      "Jenga": 4408,
      "Lat": 4409,
      "Mus": 4410,
      "Memb": 4411,
      "Nu": 4412,
      "Ori": 4413,
      "Ra": 4414,
      "Ve": 4415,
      "Vi": 4416,
      "award": 4417,
      "await": 4418,
      "broad": 4419,
      "brace": 4420,
      "bbling": 4421,
      "bongo": 4422,
      "clar": 4423,
      "citi": 4424,
      "dep": 4425,
      "fellow": 4426,
      "gth": 4427,
      "hour": 4428,
      "hine": 4429,
      "iP": 4430,
      "ists": 4431,
      "iev": 4432,
      "ister": 4433,
      "lining": 4434,
      "mass": 4435,
      "mowing": 4436,
      "mitten": 4437,
      "noo": 4438,
      "nun": 4439,
      "oil": 4440,
      "oke": 4441,
      "otic": 4442,
      "pans": 4443,
      "ran": 4444,
      "rise": 4445,
      "sar": 4446,
      "sear": 4447,
      "slip": 4448,
      "tw": 4449,
      "ttes": 4450,
      "ual": 4451,
      "ute": 4452,
      "ured": 4453,
      "used": 4454,
      "vid": 4455,
      "viron": 4456,
      "wrist": 4457,
      "when": 4458,
      "zone": 4459,
      "zard": 4460,
      "zip": 4461,
      "ingred": 4462,
      "though": 4463,
      "thick": 4464,
      "reme": 4465,
      "leop": 4466,
      "legged": 4467,
      "thedr": 4468,
      "stal": 4469,
      "alt": 4470,
      "ised": 4471,
      "laid": 4472,
      "environ": 4473,
      "itive": 4474,
      "wilder": 4475,
      "cker": 4476,
      "orke": 4477,
      "opy": 4478,
      "identi": 4479,
      "aren": 4480,
      "gry": 4481,
      "grown": 4482,
      "asking": 4483,
      "oot": 4484,
      "alling": 4485,
      "dolls": 4486,
      "hore": 4487,
      "holid": 4488,
      "blower": 4489,
      "redhead": 4490,
      "adow": 4491,
      "ramid": 4492,
      "rafts": 4493,
      "meadow": 4494,
      "beat": 4495,
      "beers": 4496,
      "beating": 4497,
      "rip": 4498,
      "riers": 4499,
      "shack": 4500,
      "vering": 4501,
      "seating": 4502,
      "seven": 4503,
      "licking": 4504,
      "frying": 4505,
      "downhill": 4506,
      "tiger": 4507,
      "upwards": 4508,
      "maj": 4509,
      "mail": 4510,
      "fill": 4511,
      "sidelines": 4512,
      "paralle": 4513,
      "somewhere": 4514,
      "backseat": 4515,
      "rugs": 4516,
      "rustic": 4517,
      "indian": 4518,
      "bie": 4519,
      "sip": 4520,
      "bled": 4521,
      "snorke": 4522,
      "feature": 4523,
      "crops": 4524,
      "bathe": 4525,
      "tured": 4526,
      "tubes": 4527,
      "mber": 4528,
      "termin": 4529,
      "cons": 4530,
      "constru": 4531,
      "dyed": 4532,
      "scrap": 4533,
      "scopes": 4534,
      "picket": 4535,
      "tablecloth": 4536,
      "topless": 4537,
      "sunbathing": 4538,
      "spir": 4539,
      "spring": 4540,
      "sprin": 4541,
      "mentary": 4542,
      "marsh": 4543,
      "marker": 4544,
      "marked": 4545,
      "bend": 4546,
      "muscular": 4547,
      "cameraman": 4548,
      "woodland": 4549,
      "antly": 4550,
      "cave": 4551,
      "casting": 4552,
      "cathedr": 4553,
      "cus": 4554,
      "ggle": 4555,
      "ended": 4556,
      "striking": 4557,
      "stripe": 4558,
      "drying": 4559,
      "safe": 4560,
      "purchase": 4561,
      "speeds": 4562,
      "mountainous": 4563,
      "typing": 4564,
      "expan": 4565,
      "exiting": 4566,
      "stores": 4567,
      "crosscountry": 4568,
      "flock": 4569,
      "were": 4570,
      "weigh": 4571,
      "colorfully": 4572,
      "mouths": 4573,
      "cler": 4574,
      "apples": 4575,
      "fuzzy": 4576,
      "desks": 4577,
      "desser": 4578,
      "bows": 4579,
      "rolls": 4580,
      "aker": 4581,
      "Soon": 4582,
      "disc": 4583,
      "competitive": 4584,
      "polish": 4585,
      "passer": 4586,
      "tracksuit": 4587,
      "mascot": 4588,
      "casino": 4589,
      "chased": 4590,
      "temple": 4591,
      "fog": 4592,
      "foggy": 4593,
      "stomers": 4594,
      "pointed": 4595,
      "snowboards": 4596,
      "monitors": 4597,
      "starring": 4598,
      "prepared": 4599,
      "mattress": 4600,
      "skyline": 4601,
      "skydiving": 4602,
      "battle": 4603,
      "rails": 4604,
      "lands": 4605,
      "fetch": 4606,
      "fetti": 4607,
      "squats": 4608,
      "written": 4609,
      "hotdogs": 4610,
      "cigarettes": 4611,
      "barely": 4612,
      "wrestlers": 4613,
      "cheerleader": 4614,
      "ports": 4615,
      "variety": 4616,
      "resort": 4617,
      "railings": 4618,
      "visor": 4619,
      "artists": 4620,
      "collie": 4621,
      "dryer": 4622,
      "Worker": 4623,
      "seafood": 4624,
      "examine": 4625,
      "videota": 4626,
      "burgers": 4627,
      "chief": 4628,
      "ients": 4629,
      "greet": 4630,
      "harbor": 4631,
      "piercing": 4632,
      "rolled": 4633,
      "prints": 4634,
      "sculptures": 4635,
      "sym": 4636,
      "lush": 4637,
      "strings": 4638,
      "completing": 4639,
      "pyramid": 4640,
      "framed": 4641,
      "peaks": 4642,
      "Guys": 4643,
      "puppet": 4644,
      "storm": 4645,
      "berry": 4646,
      "Star": 4647,
      "warming": 4648,
      "Cola": 4649,
      "Coca": 4650,
      "reception": 4651,
      "advertisements": 4652,
      "designed": 4653,
      "farmers": 4654,
      "grinds": 4655,
      "barbecu": 4656,
      "braid": 4657,
      "trotting": 4658,
      "tarp": 4659,
      "rollerskates": 4660,
      "daily": 4661,
      "occup": 4662,
      "snacks": 4663,
      "barrels": 4664,
      "nude": 4665,
      "shawl": 4666,
      "necklaces": 4667,
      "Local": 4668,
      "ordering": 4669,
      "begin": 4670,
      "camels": 4671,
      "exercising": 4672,
      "extreme": 4673,
      "trophy": 4674,
      "muzzled": 4675,
      "mounted": 4676,
      "cotton": 4677,
      "exhib": 4678,
      "presents": 4679,
      "supermarket": 4680,
      "dotted": 4681,
      "season": 4682,
      "condition": 4683,
      "conducting": 4684,
      "punching": 4685,
      "activities": 4686,
      "travels": 4687,
      "vacuum": 4688,
      "demonstration": 4689,
      "column": 4690,
      "greyhounds": 4691,
      "slacks": 4692,
      "bounds": 4693,
      "miniature": 4694,
      "adorned": 4695,
      "employee": 4696,
      "employees": 4697,
      "character": 4698,
      "characters": 4699,
      "Walmart": 4700,
      "crawls": 4701,
      "maybe": 4702,
      "pirate": 4703,
      "Sub": 4704,
      "Tourists": 4705,
      "fedora": 4706,
      "poodle": 4707,
      "attractive": 4708,
      "blurred": 4709,
      "watermelons": 4710,
      "acrobatic": 4711,
      "defender": 4712,
      "bananas": 4713,
      "Players": 4714,
      "named": 4715,
      "measuring": 4716,
      "separate": 4717,
      "mitt": 4718,
      "buffet": 4719,
      "Musicians": 4720,
      "vacuuming": 4721,
      "Rollerbla": 4722,
      "releas": 4723,
      "scientist": 4724,
      "illuminated": 4725,
      "Customers": 4726,
      "Vendors": 4727,
      "kimon": 4728,
      "British": 4729,
      "mountainto": 4730,
      "silhouetted": 4731,
      "enthusiastic": 4732,
      "xylophone": 4733,
      "Brunette": 4734,
      "Baseball": 4735,
      "Members": 4736,
      "Numerous": 4737,
      "ieval": 4738,
      "ingredients": 4739,
      "leopard": 4740,
      "environment": 4741,
      "wilderness": 4742,
      "holiday": 4743,
      "cathedral": 4744,
      "Ap": 4745,
      "As": 4746,
      "Bikers": 4747,
      "Cow": 4748,
      "Clau": 4749,
      "Dan": 4750,
      "Dirt": 4751,
      "Ele": 4752,
      "Fam": 4753,
      "Father": 4754,
      "Foot": 4755,
      "Gre": 4756,
      "Happ": 4757,
      "Mil": 4758,
      "Orange": 4759,
      "Sp": 4760,
      "Swi": 4761,
      "Sun": 4762,
      "Sold": 4763,
      "Snow": 4764,
      "Ten": 4765,
      "Todd": 4766,
      "Uni": 4767,
      "Vol": 4768,
      "ame": 4769,
      "aboard": 4770,
      "athered": 4771,
      "bones": 4772,
      "cco": 4773,
      "cash": 4774,
      "cats": 4775,
      "det": 4776,
      "drain": 4777,
      "double": 4778,
      "em": 4779,
      "ere": 4780,
      "est": 4781,
      "elding": 4782,
      "ffe": 4783,
      "french": 4784,
      "gap": 4785,
      "gress": 4786,
      "gent": 4787,
      "hunch": 4788,
      "hops": 4789,
      "igan": 4790,
      "kno": 4791,
      "lin": 4792,
      "lic": 4793,
      "mx": 4794,
      "moo": 4795,
      "nat": 4796,
      "nes": 4797,
      "osk": 4798,
      "olive": 4799,
      "pops": 4800,
      "soup": 4801,
      "sound": 4802,
      "scr": 4803,
      "swa": 4804,
      "sband": 4805,
      "sash": 4806,
      "sance": 4807,
      "tin": 4808,
      "tly": 4809,
      "ula": 4810,
      "ude": 4811,
      "ustr": 4812,
      "vor": 4813,
      "wand": 4814,
      "zom": 4815,
      "inis": 4816,
      "infl": 4817,
      "inspect": 4818,
      "information": 4819,
      "anci": 4820,
      "anvil": 4821,
      "inging": 4822,
      "thy": 4823,
      "return": 4824,
      "erie": 4825,
      "lemon": 4826,
      "hio": 4827,
      "attack": 4828,
      "atula": 4829,
      "woven": 4830,
      "alco": 4831,
      "ison": 4832,
      "within": 4833,
      "toe": 4834,
      "chu": 4835,
      "chure": 4836,
      "challen": 4837,
      "ident": 4838,
      "whis": 4839,
      "kings": 4840,
      "grip": 4841,
      "dots": 4842,
      "rot": 4843,
      "unte": 4844,
      "unloading": 4845,
      "rag": 4846,
      "raking": 4847,
      "raise": 4848,
      "ravine": 4849,
      "memor": 4850,
      "belly": 4851,
      "rimmed": 4852,
      "cocon": 4853,
      "ford": 4854,
      "tau": 4855,
      "talent": 4856,
      "lime": 4857,
      "licks": 4858,
      "soars": 4859,
      "frown": 4860,
      "bump": 4861,
      "bucks": 4862,
      "need": 4863,
      "ami": 4864,
      "illa": 4865,
      "illed": 4866,
      "tip": 4867,
      "brind": 4868,
      "magn": 4869,
      "polit": 4870,
      "ressive": 4871,
      "watering": 4872,
      "words": 4873,
      "rush": 4874,
      "rusty": 4875,
      "jumpsuits": 4876,
      "bib": 4877,
      "forming": 4878,
      "feathered": 4879,
      "cry": 4880,
      "crate": 4881,
      "bak": 4882,
      "bably": 4883,
      "snowball": 4884,
      "overlook": 4885,
      "ulting": 4886,
      "ultimate": 4887,
      "elder": 4888,
      "confu": 4889,
      "contemp": 4890,
      "confetti": 4891,
      "personnel": 4892,
      "handbag": 4893,
      "handheld": 4894,
      "accep": 4895,
      "build": 4896,
      "atee": 4897,
      "nearly": 4898,
      "pub": 4899,
      "puzz": 4900,
      "pushed": 4901,
      "scaling": 4902,
      "sciss": 4903,
      "scattered": 4904,
      "piles": 4905,
      "tures": 4906,
      "haul": 4907,
      "offering": 4908,
      "sundress": 4909,
      "sunshine": 4910,
      "span": 4911,
      "spatula": 4912,
      "gos": 4913,
      "goatee": 4914,
      "favor": 4915,
      "devices": 4916,
      "tends": 4917,
      "mule": 4918,
      "shorter": 4919,
      "antily": 4920,
      "pedal": 4921,
      "cable": 4922,
      "foods": 4923,
      "curi": 4924,
      "ggers": 4925,
      "strike": 4926,
      "merry": 4927,
      "boogie": 4928,
      "quad": 4929,
      "sages": 4930,
      "sample": 4931,
      "climbers": 4932,
      "progress": 4933,
      "probably": 4934,
      "auto": 4935,
      "barric": 4936,
      "barriers": 4937,
      "slopes": 4938,
      "crest": 4939,
      "creates": 4940,
      "husband": 4941,
      "flaming": 4942,
      "flames": 4943,
      "surfers": 4944,
      "bowtie": 4945,
      "flowery": 4946,
      "teddy": 4947,
      "fireworks": 4948,
      "evil": 4949,
      "capped": 4950,
      "noses": 4951,
      "skill": 4952,
      "athers": 4953,
      "versity": 4954,
      "floors": 4955,
      "shingles": 4956,
      "nightclub": 4957,
      "bodysuit": 4958,
      "cier": 4959,
      "clothed": 4960,
      "series": 4961,
      "kicked": 4962,
      "riverbank": 4963,
      "turkey": 4964,
      "shake": 4965,
      "bikinis": 4966,
      "facial": 4967,
      "boxers": 4968,
      "stern": 4969,
      "submer": 4970,
      "affe": 4971,
      "policemen": 4972,
      "wheelchairs": 4973,
      "velin": 4974,
      "plank": 4975,
      "monk": 4976,
      "stars": 4977,
      "mats": 4978,
      "proud": 4979,
      "breath": 4980,
      "shouting": 4981,
      "clutching": 4982,
      "medieval": 4983,
      "squad": 4984,
      "crafting": 4985,
      "patrons": 4986,
      "lower": 4987,
      "blocking": 4988,
      "kiosk": 4989,
      "grills": 4990,
      "length": 4991,
      "relay": 4992,
      "portable": 4993,
      "ize": 4994,
      "direct": 4995,
      "pitching": 4996,
      "poncho": 4997,
      "champ": 4998,
      "checked": 4999,
      "checkout": 5000,
      "cardigan": 5001,
      "essor": 5002,
      "quest": 5003,
      "waterside": 5004,
      "wraps": 5005,
      "operated": 5006,
      "Work": 5007,
      "hook": 5008,
      "lanes": 5009,
      "stunts": 5010,
      "microscopes": 5011,
      "deserted": 5012,
      "drag": 5013,
      "dragon": 5014,
      "system": 5015,
      "sleeves": 5016,
      "minton": 5017,
      "professor": 5018,
      "hearts": 5019,
      "brochure": 5020,
      "pillar": 5021,
      "State": 5022,
      "wineglasses": 5023,
      "strollers": 5024,
      "dropping": 5025,
      "bottoms": 5026,
      "sprinklers": 5027,
      "scooping": 5028,
      "sharp": 5029,
      "swords": 5030,
      "fixes": 5031,
      "testers": 5032,
      "beams": 5033,
      "spots": 5034,
      "relaxes": 5035,
      "occur": 5036,
      "doctors": 5037,
      "brooms": 5038,
      "liquor": 5039,
      "pigeon": 5040,
      "jockeys": 5041,
      "ribbons": 5042,
      "knitting": 5043,
      "excitedly": 5044,
      "aissance": 5045,
      "focus": 5046,
      "propped": 5047,
      "assisting": 5048,
      "ceremonial": 5049,
      "nurse": 5050,
      "lipstick": 5051,
      "completely": 5052,
      "aiming": 5053,
      "texting": 5054,
      "newlywed": 5055,
      "Legos": 5056,
      "USA": 5057,
      "senior": 5058,
      "saddle": 5059,
      "axe": 5060,
      "badge": 5061,
      "badminton": 5062,
      "gowns": 5063,
      "missing": 5064,
      "vocal": 5065,
      "congregate": 5066,
      "European": 5067,
      "tomatoes": 5068,
      "socializing": 5069,
      "expression": 5070,
      "radio": 5071,
      "convention": 5072,
      "convenience": 5073,
      "briefcase": 5074,
      "stirring": 5075,
      "assembled": 5076,
      "bronco": 5077,
      "accompanied": 5078,
      "weapon": 5079,
      "elevated": 5080,
      "McDonald": 5081,
      "those": 5082,
      "grasping": 5083,
      "razor": 5084,
      "butcher": 5085,
      "harvesting": 5086,
      "Beautiful": 5087,
      "glacier": 5088,
      "arrangement": 5089,
      "seesaw": 5090,
      "bulldozer": 5091,
      "Miami": 5092,
      "Protesters": 5093,
      "Shop": 5094,
      "Shir": 5095,
      "Seattle": 5096,
      "Times": 5097,
      "damaged": 5098,
      "elaborate": 5099,
      "thought": 5100,
      "skull": 5101,
      "connected": 5102,
      "bridesmaids": 5103,
      "Jewish": 5104,
      "Muslim": 5105,
      "clarin": 5106,
      "mittens": 5107,
      "major": 5108,
      "parallel": 5109,
      "features": 5110,
      "constructed": 5111,
      "expanse": 5112,
      "dessert": 5113,
      "Sooners": 5114,
      "symbo": 5115,
      "Subway": 5116,
      "mountaintop": 5117,
      "Family": 5118,
      "Football": 5119,
      "Military": 5120,
      "Toddler": 5121,
      "hunched": 5122,
      "scratch": 5123,
      "ancient": 5124,
      "alcoho": 5125,
      "political": 5126,
      "scissors": 5127,
      "favorite": 5128,
      "Ath": 5129,
      "Bal": 5130,
      "Bas": 5131,
      "Bob": 5132,
      "Big": 5133,
      "Cy": 5134,
      "Cal": 5135,
      "Dis": 5136,
      "East": 5137,
      "For": 5138,
      "Gray": 5139,
      "High": 5140,
      "Halloween": 5141,
      "Ital": 5142,
      "Kid": 5143,
      "La": 5144,
      "Min": 5145,
      "Mon": 5146,
      "Mouse": 5147,
      "Over": 5148,
      "Obam": 5149,
      "Pi": 5150,
      "Per": 5151,
      "Pat": 5152,
      "Pic": 5153,
      "Paren": 5154,
      "Ste": 5155,
      "Spon": 5156,
      "To": 5157,
      "Wall": 5158,
      "aid": 5159,
      "ado": 5160,
      "bon": 5161,
      "bmx": 5162,
      "cta": 5163,
      "cuit": 5164,
      "cows": 5165,
      "cinder": 5166,
      "drun": 5167,
      "deter": 5168,
      "ec": 5169,
      "eper": 5170,
      "eque": 5171,
      "found": 5172,
      "fter": 5173,
      "gl": 5174,
      "gue": 5175,
      "haps": 5176,
      "iers": 5177,
      "iors": 5178,
      "ku": 5179,
      "kly": 5180,
      "kins": 5181,
      "kitten": 5182,
      "lla": 5183,
      "lph": 5184,
      "mou": 5185,
      "mind": 5186,
      "mops": 5187,
      "nal": 5188,
      "nder": 5189,
      "oar": 5190,
      "oid": 5191,
      "pou": 5192,
      "pow": 5193,
      "pride": 5194,
      "punk": 5195,
      "rof": 5196,
      "roo": 5197,
      "sling": 5198,
      "slab": 5199,
      "ular": 5200,
      "var": 5201,
      "wan": 5202,
      "want": 5203,
      "xim": 5204,
      "yon": 5205,
      "year": 5206,
      "zy": 5207,
      "zoo": 5208,
      "answ": 5209,
      "angry": 5210,
      "inger": 5211,
      "rer": 5212,
      "real": 5213,
      "resp": 5214,
      "rect": 5215,
      "recre": 5216,
      "rehear": 5217,
      "returns": 5218,
      "era": 5219,
      "eria": 5220,
      "onts": 5221,
      "arr": 5222,
      "hic": 5223,
      "hift": 5224,
      "theme": 5225,
      "atus": 5226,
      "sted": 5227,
      "stride": 5228,
      "last": 5229,
      "lable": 5230,
      "ladd": 5231,
      "wiping": 5232,
      "orary": 5233,
      "escape": 5234,
      "chat": 5235,
      "chunk": 5236,
      "ider": 5237,
      "idated": 5238,
      "ared": 5239,
      "whistle": 5240,
      "gram": 5241,
      "grima": 5242,
      "earth": 5243,
      "early": 5244,
      "earrings": 5245,
      "asm": 5246,
      "asph": 5247,
      "text": 5248,
      "icature": 5249,
      "dolph": 5250,
      "pel": 5251,
      "peach": 5252,
      "pelling": 5253,
      "peak": 5254,
      "robot": 5255,
      "holes": 5256,
      "unfinished": 5257,
      "unknown": 5258,
      "unidenti": 5259,
      "geons": 5260,
      "geBob": 5261,
      "adles": 5262,
      "admi": 5263,
      "rake": 5264,
      "bell": 5265,
      "girlfriend": 5266,
      "shines": 5267,
      "tap": 5268,
      "tamb": 5269,
      "vertic": 5270,
      "sew": 5271,
      "selection": 5272,
      "lie": 5273,
      "limb": 5274,
      "sored": 5275,
      "solo": 5276,
      "solit": 5277,
      "somb": 5278,
      "solder": 5279,
      "solid": 5280,
      "fronts": 5281,
      "bud": 5282,
      "lost": 5283,
      "outfield": 5284,
      "herding": 5285,
      "ilted": 5286,
      "tiara": 5287,
      "ups": 5288,
      "upper": 5289,
      "upright": 5290,
      "appar": 5291,
      "carto": 5292,
      "carve": 5293,
      "cargo": 5294,
      "carouse": 5295,
      "carved": 5296,
      "caricature": 5297,
      "maid": 5298,
      "master": 5299,
      "poking": 5300,
      "posts": 5301,
      "watercraft": 5302,
      "tless": 5303,
      "dressing": 5304,
      "fied": 5305,
      "fills": 5306,
      "ached": 5307,
      "parts": 5308,
      "backlit": 5309,
      "backward": 5310,
      "backstroke": 5311,
      "backhoe": 5312,
      "ruins": 5313,
      "rubble": 5314,
      "litter": 5315,
      "greenery": 5316,
      "Ange": 5317,
      "formed": 5318,
      "sister": 5319,
      "singers": 5320,
      "sna": 5321,
      "snap": 5322,
      "snaps": 5323,
      "feathers": 5324,
      "pace": 5325,
      "paci": 5326,
      "pauses": 5327,
      "cradles": 5328,
      "baked": 5329,
      "snowman": 5330,
      "snowcapped": 5331,
      "digs": 5332,
      "tugging": 5333,
      "conver": 5334,
      "handles": 5335,
      "handling": 5336,
      "actor": 5337,
      "trays": 5338,
      "mob": 5339,
      "mothers": 5340,
      "crowds": 5341,
      "scantily": 5342,
      "swan": 5343,
      "perched": 5344,
      "perhaps": 5345,
      "ketball": 5346,
      "workman": 5347,
      "clock": 5348,
      "headset": 5349,
      "hairstyle": 5350,
      "struggles": 5351,
      "struggling": 5352,
      "goats": 5353,
      "dering": 5354,
      "gum": 5355,
      "gues": 5356,
      "onding": 5357,
      "deer": 5358,
      "marches": 5359,
      "tend": 5360,
      "suitcases": 5361,
      "dant": 5362,
      "flour": 5363,
      "flowing": 5364,
      "pedd": 5365,
      "pedestri": 5366,
      "helf": 5367,
      "torches": 5368,
      "roadway": 5369,
      "ished": 5370,
      "jog": 5371,
      "strian": 5372,
      "themed": 5373,
      "quain": 5374,
      "sands": 5375,
      "olor": 5376,
      "skateboarders": 5377,
      "collecting": 5378,
      "lingerie": 5379,
      "ploring": 5380,
      "trimming": 5381,
      "baseman": 5382,
      "daylight": 5383,
      "pleas": 5384,
      "towels": 5385,
      "barking": 5386,
      "barren": 5387,
      "exploring": 5388,
      "storefronts": 5389,
      "slow": 5390,
      "sline": 5391,
      "vio": 5392,
      "winding": 5393,
      "windbreak": 5394,
      "web": 5395,
      "sweaters": 5396,
      "sweatsuit": 5397,
      "sweatshirts": 5398,
      "motorbikes": 5399,
      "agne": 5400,
      "applies": 5401,
      "husky": 5402,
      "given": 5403,
      "sheer": 5404,
      "canopy": 5405,
      "canyon": 5406,
      "drilling": 5407,
      "drivers": 5408,
      "dribbles": 5409,
      "installing": 5410,
      "fireplace": 5411,
      "hilly": 5412,
      "rounding": 5413,
      "opened": 5414,
      "armor": 5415,
      "armed": 5416,
      "anged": 5417,
      "instructing": 5418,
      "least": 5419,
      "cartwheel": 5420,
      "cession": 5421,
      "rested": 5422,
      "besides": 5423,
      "clothesline": 5424,
      "competitors": 5425,
      "passed": 5426,
      "served": 5427,
      "massive": 5428,
      "message": 5429,
      "lapidated": 5430,
      "interact": 5431,
      "cowgirl": 5432,
      "itement": 5433,
      "suburban": 5434,
      "volunte": 5435,
      "cooked": 5436,
      "foam": 5437,
      "pray": 5438,
      "friendly": 5439,
      "Americans": 5440,
      "curve": 5441,
      "curren": 5442,
      "curtain": 5443,
      "curved": 5444,
      "shoeshine": 5445,
      "monopoly": 5446,
      "starts": 5447,
      "carried": 5448,
      "mature": 5449,
      "appearing": 5450,
      "graffitied": 5451,
      "baton": 5452,
      "batman": 5453,
      "breast": 5454,
      "breaks": 5455,
      "film": 5456,
      "stered": 5457,
      "steam": 5458,
      "ivan": 5459,
      "rowboat": 5460,
      "crazy": 5461,
      "gloved": 5462,
      "photographing": 5463,
      "lowered": 5464,
      "bloss": 5465,
      "vegetation": 5466,
      "Grand": 5467,
      "structing": 5468,
      "milk": 5469,
      "letter": 5470,
      "butt": 5471,
      "multi": 5472,
      "petals": 5473,
      "hammers": 5474,
      "stylish": 5475,
      "Groups": 5476,
      "kerchief": 5477,
      "directs": 5478,
      "splash": 5479,
      "artistic": 5480,
      "saying": 5481,
      "chained": 5482,
      "chains": 5483,
      "masked": 5484,
      "Concert": 5485,
      "tunic": 5486,
      "decorating": 5487,
      "businessman": 5488,
      "shady": 5489,
      "partying": 5490,
      "operation": 5491,
      "burger": 5492,
      "chips": 5493,
      "superman": 5494,
      "passion": 5495,
      "leashes": 5496,
      "makeshift": 5497,
      "cloths": 5498,
      "campsite": 5499,
      "balanced": 5500,
      "cattle": 5501,
      "multicolor": 5502,
      "contents": 5503,
      "harp": 5504,
      "attentively": 5505,
      "attendant": 5506,
      "pengu": 5507,
      "dramat": 5508,
      "refre": 5509,
      "includes": 5510,
      "scales": 5511,
      "eyeglasses": 5512,
      "blocked": 5513,
      "peacock": 5514,
      "dunking": 5515,
      "hooping": 5516,
      "bookshelf": 5517,
      "posters": 5518,
      "fairy": 5519,
      "stacks": 5520,
      "mustard": 5521,
      "saxop": 5522,
      "padded": 5523,
      "Com": 5524,
      "Comp": 5525,
      "bunny": 5526,
      "pinstriped": 5527,
      "pinned": 5528,
      "tongs": 5529,
      "clearing": 5530,
      "sheets": 5531,
      "heavyset": 5532,
      "exciting": 5533,
      "excitement": 5534,
      "donkeys": 5535,
      "bites": 5536,
      "embrace": 5537,
      "vacation": 5538,
      "opponents": 5539,
      "positioned": 5540,
      "delic": 5541,
      "cooler": 5542,
      "coolers": 5543,
      "tossed": 5544,
      "sailor": 5545,
      "floaties": 5546,
      "emerges": 5547,
      "ifying": 5548,
      "salad": 5549,
      "zebra": 5550,
      "ishermen": 5551,
      "parachuting": 5552,
      "parachutes": 5553,
      "descending": 5554,
      "flee": 5555,
      "beginning": 5556,
      "tumbling": 5557,
      "Marathon": 5558,
      "sacks": 5559,
      "intense": 5560,
      "elephants": 5561,
      "spike": 5562,
      "ailable": 5563,
      "popcorn": 5564,
      "sparse": 5565,
      "merchant": 5566,
      "cheeks": 5567,
      "comforting": 5568,
      "comfortable": 5569,
      "priest": 5570,
      "plush": 5571,
      "archway": 5572,
      "bounding": 5573,
      "utility": 5574,
      "crawling": 5575,
      "gliding": 5576,
      "glider": 5577,
      "tomato": 5578,
      "cockpit": 5579,
      "combat": 5580,
      "expressions": 5581,
      "lantern": 5582,
      "community": 5583,
      "bundled": 5584,
      "Tourist": 5585,
      "javelin": 5586,
      "poodles": 5587,
      "shelves": 5588,
      "reclines": 5589,
      "attraction": 5590,
      "cept": 5591,
      "bushy": 5592,
      "lovely": 5593,
      "watermelon": 5594,
      "crowns": 5595,
      "banana": 5596,
      "Color": 5597,
      "remote": 5598,
      "blindfolded": 5599,
      "bronze": 5600,
      "tuxedo": 5601,
      "wakeboard": 5602,
      "slicing": 5603,
      "weapons": 5604,
      "huddled": 5605,
      "McDonalds": 5606,
      "Amish": 5607,
      "recent": 5608,
      "leaned": 5609,
      "arrive": 5610,
      "interviewed": 5611,
      "Bicyclist": 5612,
      "Photograp": 5613,
      "smooth": 5614,
      "concentrates": 5615,
      "cookies": 5616,
      "seagulls": 5617,
      "assistant": 5618,
      "Rodeo": 5619,
      "Surfer": 5620,
      "eagerly": 5621,
      "yelling": 5622,
      "antique": 5623,
      "register": 5624,
      "historic": 5625,
      "toilet": 5626,
      "ascending": 5627,
      "sponsored": 5628,
      "mannequin": 5629,
      "Gentle": 5630,
      "citizens": 5631,
      "depic": 5632,
      "iPod": 5633,
      "saris": 5634,
      "searching": 5635,
      "terminal": 5636,
      "passerby": 5637,
      "barbecuing": 5638,
      "braided": 5639,
      "occupied": 5640,
      "exhibition": 5641,
      "conditions": 5642,
      "Rollerblades": 5643,
      "kimonos": 5644,
      "Apple": 5645,
      "Cowboy": 5646,
      "Claus": 5647,
      "Dancers": 5648,
      "Happy": 5649,
      "Tennis": 5650,
      "University": 5651,
      "identical": 5652,
      "taught": 5653,
      "brindle": 5654,
      "magnifying": 5655,
      "bakery": 5656,
      "confused": 5657,
      "contempl": 5658,
      "champagne": 5659,
      "vocalist": 5660,
      "Shirtless": 5661,
      "clarinet": 5662,
      "symbol": 5663,
      "Basketball": 5664,
      "Obama": 5665,
      "Parents": 5666,
      "SpongeBob": 5667,
      "equestrian": 5668,
      "varying": 5669,
      "recreational": 5670,
      "asphalt": 5671,
      "tambour": 5672,
      "vertical": 5673,
      "apparatus": 5674,
      "carousel": 5675,
      "pacifier": 5676,
      "actors": 5677,
      "pedestrian": 5678,
      "windbreaker": 5679,
      "0s": 5680,
      "95": 5681,
      "Aid": 5682,
      "All": 5683,
      "Afr": 5684,
      "About": 5685,
      "Bur": 5686,
      "Bill": 5687,
      "Bike": 5688,
      "Braz": 5689,
      "CE": 5690,
      "Cyclists": 5691,
      "Cars": 5692,
      "DS": 5693,
      "Day": 5694,
      "Dress": 5695,
      "During": 5696,
      "EL": 5697,
      "Emer": 5698,
      "Fri": 5699,
      "GO": 5700,
      "Gy": 5701,
      "Gard": 5702,
      "Guitar": 5703,
      "Har": 5704,
      "Hand": 5705,
      "His": 5706,
      "Ice": 5707,
      "Isl": 5708,
      "Ken": 5709,
      "Kay": 5710,
      "Kitchen": 5711,
      "Lou": 5712,
      "Long": 5713,
      "MC": 5714,
      "Mr": 5715,
      "Mick": 5716,
      "Ne": 5717,
      "Nike": 5718,
      "Ok": 5719,
      "Or": 5720,
      "Ocean": 5721,
      "Out": 5722,
      "Pop": 5723,
      "Park": 5724,
      "Qu": 5725,
      "Ri": 5726,
      "SU": 5727,
      "Sc": 5728,
      "Side": 5729,
      "South": 5730,
      "Sports": 5731,
      "Singer": 5732,
      "Ti": 5733,
      "Ter": 5734,
      "Wa": 5735,
      "Wet": 5736,
      "Wel": 5737,
      "Wash": 5738,
      "You": 5739,
      "Yama": 5740,
      "aver": 5741,
      "aim": 5742,
      "bay": 5743,
      "bark": 5744,
      "banging": 5745,
      "cen": 5746,
      "cred": 5747,
      "dar": 5748,
      "dge": 5749,
      "dent": 5750,
      "east": 5751,
      "fine": 5752,
      "flea": 5753,
      "gal": 5754,
      "gor": 5755,
      "gic": 5756,
      "gur": 5757,
      "gover": 5758,
      "gion": 5759,
      "gated": 5760,
      "glan": 5761,
      "hed": 5762,
      "hung": 5763,
      "ik": 5764,
      "iac": 5765,
      "ipants": 5766,
      "jar": 5767,
      "kit": 5768,
      "kilts": 5769,
      "kites": 5770,
      "lat": 5771,
      "lor": 5772,
      "loud": 5773,
      "mow": 5774,
      "mad": 5775,
      "mble": 5776,
      "mbling": 5777,
      "nin": 5778,
      "nine": 5779,
      "national": 5780,
      "oy": 5781,
      "ock": 5782,
      "poun": 5783,
      "prun": 5784,
      "pong": 5785,
      "pite": 5786,
      "rou": 5787,
      "sat": 5788,
      "satch": 5789,
      "sons": 5790,
      "slot": 5791,
      "tish": 5792,
      "uten": 5793,
      "ums": 5794,
      "uku": 5795,
      "vidu": 5796,
      "vast": 5797,
      "winning": 5798,
      "yed": 5799,
      "your": 5800,
      "yond": 5801,
      "york": 5802,
      "zoom": 5803,
      "inas": 5804,
      "inline": 5805,
      "incoming": 5806,
      "angu": 5807,
      "ington": 5808,
      "thre": 5809,
      "thor": 5810,
      "think": 5811,
      "rear": 5812,
      "rero": 5813,
      "respe": 5814,
      "retail": 5815,
      "removing": 5816,
      "returning": 5817,
      "ero": 5818,
      "once": 5819,
      "lei": 5820,
      "lele": 5821,
      "lege": 5822,
      "arth": 5823,
      "arid": 5824,
      "archi": 5825,
      "hikes": 5826,
      "hidd": 5827,
      "hitch": 5828,
      "hips": 5829,
      "these": 5830,
      "ould": 5831,
      "andex": 5832,
      "stry": 5833,
      "wool": 5834,
      "alth": 5835,
      "aler": 5836,
      "alike": 5837,
      "isk": 5838,
      "ises": 5839,
      "laho": 5840,
      "lakes": 5841,
      "ental": 5842,
      "engage": 5843,
      "itating": 5844,
      "wigs": 5845,
      "wipes": 5846,
      "wicker": 5847,
      "topu": 5848,
      "toast": 5849,
      "orders": 5850,
      "chore": 5851,
      "oppy": 5852,
      "arel": 5853,
      "arer": 5854,
      "areas": 5855,
      "boss": 5856,
      "edos": 5857,
      "grins": 5858,
      "earmu": 5859,
      "allic": 5860,
      "testing": 5861,
      "dolly": 5862,
      "peeling": 5863,
      "playpen": 5864,
      "roses": 5865,
      "una": 5866,
      "unseen": 5867,
      "unpaved": 5868,
      "unpacking": 5869,
      "gee": 5870,
      "geo": 5871,
      "shit": 5872,
      "shields": 5873,
      "blown": 5874,
      "bloom": 5875,
      "reds": 5876,
      "reddish": 5877,
      "siting": 5878,
      "add": 5879,
      "ader": 5880,
      "ades": 5881,
      "advan": 5882,
      "owner": 5883,
      "owners": 5884,
      "megap": 5885,
      "begging": 5886,
      "beyond": 5887,
      "bearer": 5888,
      "hispanic": 5889,
      "cemet": 5890,
      "blade": 5891,
      "ries": 5892,
      "coal": 5893,
      "como": 5894,
      "comic": 5895,
      "cotch": 5896,
      "forces": 5897,
      "forcement": 5898,
      "fortun": 5899,
      "shu": 5900,
      "taste": 5901,
      "tasting": 5902,
      "tagged": 5903,
      "verty": 5904,
      "seam": 5905,
      "seeds": 5906,
      "selecting": 5907,
      "aircraft": 5908,
      "loose": 5909,
      "soil": 5910,
      "frustr": 5911,
      "buggy": 5912,
      "buoy": 5913,
      "loop": 5914,
      "logy": 5915,
      "locomo": 5916,
      "streetlight": 5917,
      "amic": 5918,
      "walkers": 5919,
      "tible": 5920,
      "tiles": 5921,
      "tific": 5922,
      "bringing": 5923,
      "keeping": 5924,
      "cara": 5925,
      "mage": 5926,
      "magic": 5927,
      "pokes": 5928,
      "poised": 5929,
      "poverty": 5930,
      "file": 5931,
      "fives": 5932,
      "runway": 5933,
      "word": 5934,
      "someones": 5935,
      "hate": 5936,
      "sket": 5937,
      "indi": 5938,
      "formally": 5939,
      "sight": 5940,
      "sions": 5941,
      "ridding": 5942,
      "kswa": 5943,
      "pastri": 5944,
      "paws": 5945,
      "crop": 5946,
      "bathers": 5947,
      "snowing": 5948,
      "dia": 5949,
      "dilapidated": 5950,
      "overcoat": 5951,
      "overhang": 5952,
      "overturned": 5953,
      "mbone": 5954,
      "terrace": 5955,
      "terrier": 5956,
      "conso": 5957,
      "consid": 5958,
      "constructing": 5959,
      "persons": 5960,
      "actively": 5961,
      "tram": 5962,
      "trave": 5963,
      "moting": 5964,
      "mosa": 5965,
      "puffy": 5966,
      "scri": 5967,
      "scout": 5968,
      "scared": 5969,
      "piled": 5970,
      "piggy": 5971,
      "clip": 5972,
      "eatery": 5973,
      "pering": 5974,
      "kettle": 5975,
      "topic": 5976,
      "workbench": 5977,
      "closer": 5978,
      "readying": 5979,
      "headscarves": 5980,
      "orescent": 5981,
      "sunhat": 5982,
      "sunrise": 5983,
      "sunbathers": 5984,
      "spin": 5985,
      "spear": 5986,
      "spandex": 5987,
      "goers": 5988,
      "pical": 5989,
      "pictured": 5990,
      "gued": 5991,
      "decid": 5992,
      "marks": 5993,
      "markings": 5994,
      "rocking": 5995,
      "cityscape": 5996,
      "bicle": 5997,
      "floppy": 5998,
      "surgeons": 5999,
      "metro": 6000,
      "metrop": 6001,
      "metallic": 6002,
      "roping": 6003,
      "guitarists": 6004,
      "helped": 6005,
      "torn": 6006,
      "else": 6007,
      "ffs": 6008,
      "ffle": 6009,
      "ffles": 6010,
      "pancake": 6011,
      "came": 6012,
      "casts": 6013,
      "cables": 6014,
      "cafet": 6015,
      "studies": 6016,
      "roadwork": 6017,
      "buses": 6018,
      "brimmed": 6019,
      "cubicle": 6020,
      "gnant": 6021,
      "horns": 6022,
      "enders": 6023,
      "strip": 6024,
      "strikes": 6025,
      "mermaid": 6026,
      "pretending": 6027,
      "chews": 6028,
      "footbridge": 6029,
      "sandal": 6030,
      "sales": 6031,
      "Sea": 6032,
      "collec": 6033,
      "kiddie": 6034,
      "pursu": 6035,
      "purchasing": 6036,
      "umber": 6037,
      "plowing": 6038,
      "speci": 6039,
      "tribe": 6040,
      "trims": 6041,
      "triangle": 6042,
      "basement": 6043,
      "swimwear": 6044,
      "mountainside": 6045,
      "proof": 6046,
      "promoting": 6047,
      "cords": 6048,
      "typical": 6049,
      "exits": 6050,
      "exposed": 6051,
      "except": 6052,
      "whole": 6053,
      "sloping": 6054,
      "via": 6055,
      "helmeted": 6056,
      "sumo": 6057,
      "sucking": 6058,
      "nique": 6059,
      "weed": 6060,
      "weird": 6061,
      "weeds": 6062,
      "sweaty": 6063,
      "motorboat": 6064,
      "created": 6065,
      "slender": 6066,
      "apparel": 6067,
      "trained": 6068,
      "despite": 6069,
      "driven": 6070,
      "dribbling": 6071,
      "bowler": 6072,
      "basketballs": 6073,
      "rounds": 6074,
      "nology": 6075,
      "smith": 6076,
      "skimpy": 6077,
      "verse": 6078,
      "dug": 6079,
      "instructor": 6080,
      "bookstore": 6081,
      "bookbag": 6082,
      "disk": 6083,
      "stairwell": 6084,
      "civil": 6085,
      "competes": 6086,
      "Somebody": 6087,
      "beards": 6088,
      "kickboxing": 6089,
      "shave": 6090,
      "mascara": 6091,
      "graphic": 6092,
      "mesh": 6093,
      "ddling": 6094,
      "paintings": 6095,
      "substance": 6096,
      "bridal": 6097,
      "viewer": 6098,
      "likely": 6099,
      "snowboarders": 6100,
      "fami": 6101,
      "preparation": 6102,
      "phy": 6103,
      "cupcake": 6104,
      "cupcakes": 6105,
      "fourth": 6106,
      "bats": 6107,
      "breaking": 6108,
      "taller": 6109,
      "steer": 6110,
      "steers": 6111,
      "steaks": 6112,
      "statues": 6113,
      "potted": 6114,
      "landed": 6115,
      "tches": 6116,
      "wetsuits": 6117,
      "ramps": 6118,
      "fetching": 6119,
      "media": 6120,
      "squat": 6121,
      "crab": 6122,
      "photography": 6123,
      "photographers": 6124,
      "patron": 6125,
      "padding": 6126,
      "Boston": 6127,
      "write": 6128,
      "inist": 6129,
      "tattered": 6130,
      "kie": 6131,
      "spectate": 6132,
      "waitress": 6133,
      "leton": 6134,
      "letters": 6135,
      "stationary": 6136,
      "fighter": 6137,
      "paintbrush": 6138,
      "structures": 6139,
      "Individu": 6140,
      "seeming": 6141,
      "porting": 6142,
      "resid": 6143,
      "washed": 6144,
      "avy": 6145,
      "avoid": 6146,
      "available": 6147,
      "pitchers": 6148,
      "artific": 6149,
      "layers": 6150,
      "enger": 6151,
      "shoots": 6152,
      "observers": 6153,
      "circus": 6154,
      "circuit": 6155,
      "sculpting": 6156,
      "sculptor": 6157,
      "tuning": 6158,
      "wrapping": 6159,
      "partly": 6160,
      "coveralls": 6161,
      "seaweed": 6162,
      "chested": 6163,
      "camper": 6164,
      "campers": 6165,
      "celebrates": 6166,
      "content": 6167,
      "pensive": 6168,
      "tackles": 6169,
      "notice": 6170,
      "participates": 6171,
      "daughters": 6172,
      "guarding": 6173,
      "know": 6174,
      "minivan": 6175,
      "minisk": 6176,
      "scale": 6177,
      "frames": 6178,
      "strawberry": 6179,
      "cleaned": 6180,
      "fluorescent": 6181,
      "projected": 6182,
      "dunk": 6183,
      "dunes": 6184,
      "pulley": 6185,
      "storage": 6186,
      "pillars": 6187,
      "caution": 6188,
      "berty": 6189,
      "lonely": 6190,
      "postal": 6191,
      "festive": 6192,
      "flatbed": 6193,
      "Station": 6194,
      "crib": 6195,
      "waring": 6196,
      "warning": 6197,
      "stacking": 6198,
      "weave": 6199,
      "weathered": 6200,
      "balconies": 6201,
      "squares": 6202,
      "bungee": 6203,
      "bathrobe": 6204,
      "kayakers": 6205,
      "nicely": 6206,
      "receive": 6207,
      "professionals": 6208,
      "drops": 6209,
      "dropped": 6210,
      "pressure": 6211,
      "halter": 6212,
      "stools": 6213,
      "picker": 6214,
      "pickup": 6215,
      "designer": 6216,
      "freshly": 6217,
      "boulders": 6218,
      "scoop": 6219,
      "grooms": 6220,
      "shapes": 6221,
      "possession": 6222,
      "fashionable": 6223,
      "troops": 6224,
      "trombone": 6225,
      "charcoal": 6226,
      "firing": 6227,
      "welve": 6228,
      "tosses": 6229,
      "carpeted": 6230,
      "sailboats": 6231,
      "entertainer": 6232,
      "rollerskaters": 6233,
      "bounce": 6234,
      "emerging": 6235,
      "octopu": 6236,
      "collection": 6237,
      "descend": 6238,
      "siding": 6239,
      "Motor": 6240,
      "youths": 6241,
      "thinking": 6242,
      "controls": 6243,
      "receives": 6244,
      "Hotel": 6245,
      "Market": 6246,
      "extended": 6247,
      "jewelery": 6248,
      "muzzles": 6249,
      "surroundings": 6250,
      "spikes": 6251,
      "spiked": 6252,
      "wades": 6253,
      "peeks": 6254,
      "screw": 6255,
      "headbands": 6256,
      "leafless": 6257,
      "electronics": 6258,
      "Crowds": 6259,
      "straps": 6260,
      "seashore": 6261,
      "tightly": 6262,
      "tightrope": 6263,
      "cruise": 6264,
      "crutches": 6265,
      "galloping": 6266,
      "texts": 6267,
      "parasol": 6268,
      "Bull": 6269,
      "Speedo": 6270,
      "prizes": 6271,
      "seniors": 6272,
      "organizing": 6273,
      "demonstrating": 6274,
      "plucking": 6275,
      "chickens": 6276,
      "slam": 6277,
      "interested": 6278,
      "sorts": 6279,
      "technique": 6280,
      "technology": 6281,
      "adorable": 6282,
      "impressive": 6283,
      "pirates": 6284,
      "sniffs": 6285,
      "messenger": 6286,
      "waterskier": 6287,
      "calling": 6288,
      "henna": 6289,
      "maintain": 6290,
      "defenders": 6291,
      "defensive": 6292,
      "crayon": 6293,
      "College": 6294,
      "Eng": 6295,
      "Teenag": 6296,
      "Teenage": 6297,
      "maneuver": 6298,
      "stirs": 6299,
      "slices": 6300,
      "Deere": 6301,
      "floored": 6302,
      "oversized": 6303,
      "decide": 6304,
      "sausages": 6305,
      "twirling": 6306,
      "retrieving": 6307,
      "Bicyclists": 6308,
      "With": 6309,
      "dominoes": 6310,
      "mechanic": 6311,
      "mechanical": 6312,
      "smoothing": 6313,
      "cookie": 6314,
      "seagull": 6315,
      "graduation": 6316,
      "Life": 6317,
      "Looking": 6318,
      "Parade": 6319,
      "Russ": 6320,
      "chiseling": 6321,
      "oxen": 6322,
      "powder": 6323,
      "skeleton": 6324,
      "lemons": 6325,
      "rabbit": 6326,
      "rabbits": 6327,
      "stockings": 6328,
      "communicating": 6329,
      "Arabic": 6330,
      "Latin": 6331,
      "Oriental": 6332,
      "Race": 6333,
      "Vegas": 6334,
      "View": 6335,
      "bracelet": 6336,
      "noodles": 6337,
      "stalks": 6338,
      "mailbox": 6339,
      "snorkel": 6340,
      "sprinting": 6341,
      "weighing": 6342,
      "videotaping": 6343,
      "greeting": 6344,
      "Starbucks": 6345,
      "extremely": 6346,
      "enthusiastically": 6347,
      "Elementary": 6348,
      "Greyhound": 6349,
      "drainage": 6350,
      "ffel": 6351,
      "hopscotch": 6352,
      "swampy": 6353,
      "sashes": 6354,
      "inflated": 6355,
      "chubby": 6356,
      "whispering": 6357,
      "memorial": 6358,
      "coconuts": 6359,
      "accepting": 6360,
      "puzzle": 6361,
      "hauling": 6362,
      "spanish": 6363,
      "curious": 6364,
      "automobile": 6365,
      "submerged": 6366,
      "directly": 6367,
      "question": 6368,
      "occurring": 6369,
      "Shoppers": 6370,
      "scratching": 6371,
      "alcohol": 6372,
      "Disney": 6373,
      "adole": 6374,
      "foundation": 6375,
      "powered": 6376,
      "ladders": 6377,
      "dolphin": 6378,
      "unidentified": 6379,
      "solitary": 6380,
      "sombrero": 6381,
      "soldering": 6382,
      "cartoon": 6383,
      "snake": 6384,
      "convertible": 6385,
      "quaint": 6386,
      "currently": 6387,
      "blosso": 6388,
      "passionately": 6389,
      "dramatically": 6390,
      "delicious": 6391,
      "Photographers": 6392,
      "Gentleman": 6393,
      "contemplating": 6394,
      "Emergency": 6395,
      "Friends": 6396,
      "Hispanic": 6397,
      "Island": 6398,
      "KitchenAid": 6399,
      "Mickey": 6400,
      "Oklaho": 6401,
      "Welcome": 6402,
      "Washington": 6403,
      "Yamaha": 6404,
      "govern": 6405,
      "utensil": 6406,
      "ukulele": 6407,
      "respective": 6408,
      "archite": 6409,
      "hidden": 6410,
      "earmuffs": 6411,
      "megaphone": 6412,
      "cemetery": 6413,
      "frustrated": 6414,
      "kswagen": 6415,
      "pastries": 6416,
      "piggyback": 6417,
      "cafeteria": 6418,
      "artificial": 6419,
      "octopus": 6420,
      "Oklahoma": 6421,
      "08": 6422,
      "14": 6423,
      "24": 6424,
      "30": 6425,
      "3r": 6426,
      "Air": 6427,
      "Ber": 6428,
      "Bar": 6429,
      "Bat": 6430,
      "Ball": 6431,
      "Bron": 6432,
      "Bus": 6433,
      "CK": 6434,
      "Chi": 6435,
      "Cir": 6436,
      "Coun": 6437,
      "Care": 6438,
      "Coo": 6439,
      "Cap": 6440,
      "Coffee": 6441,
      "Cast": 6442,
      "Camp": 6443,
      "Coney": 6444,
      "DI": 6445,
      "Dr": 6446,
      "Dad": 6447,
      "Down": 6448,
      "Deli": 6449,
      "Eth": 6450,
      "Emp": 6451,
      "Elder": 6452,
      "Easter": 6453,
      "FC": 6454,
      "Far": 6455,
      "Fla": 6456,
      "Fro": 6457,
      "Fac": 6458,
      "Fore": 6459,
      "Few": 6460,
      "Fast": 6461,
      "French": 6462,
      "Fisherman": 6463,
      "Fishermen": 6464,
      "GA": 6465,
      "Gri": 6466,
      "Gap": 6467,
      "Good": 6468,
      "Hor": 6469,
      "Hun": 6470,
      "Hard": 6471,
      "Hikers": 6472,
      "Is": 6473,
      "Ja": 6474,
      "Jim": 6475,
      "Ko": 6476,
      "Kore": 6477,
      "LA": 6478,
      "Lone": 6479,
      "Lakers": 6480,
      "MA": 6481,
      "ME": 6482,
      "Med": 6483,
      "Mad": 6484,
      "Mac": 6485,
      "Mets": 6486,
      "Nine": 6487,
      "Ninten": 6488,
      "OI": 6489,
      "Po": 6490,
      "Pan": 6491,
      "Pre": 6492,
      "Pitch": 6493,
      "Piz": 6494,
      "Pants": 6495,
      "RO": 6496,
      "Ren": 6497,
      "Rac": 6498,
      "SW": 6499,
      "Sit": 6500,
      "Sam": 6501,
      "Spain": 6502,
      "Scot": 6503,
      "Tur": 6504,
      "Tye": 6505,
      "Twelve": 6506,
      "Un": 6507,
      "Up": 6508,
      "Well": 6509,
      "abi": 6510,
      "avi": 6511,
      "awe": 6512,
      "aign": 6513,
      "awaits": 6514,
      "aerial": 6515,
      "ault": 6516,
      "bans": 6517,
      "bins": 6518,
      "cs": 6519,
      "cac": 6520,
      "claw": 6521,
      "cited": 6522,
      "dand": 6523,
      "dal": 6524,
      "did": 6525,
      "das": 6526,
      "due": 6527,
      "dren": 6528,
      "ditch": 6529,
      "dash": 6530,
      "dreads": 6531,
      "darts": 6532,
      "dwell": 6533,
      "dorm": 6534,
      "dreds": 6535,
      "eep": 6536,
      "europe": 6537,
      "emotion": 6538,
      "fal": 6539,
      "fol": 6540,
      "gby": 6541,
      "gam": 6542,
      "gay": 6543,
      "hedge": 6544,
      "halloween": 6545,
      "ier": 6546,
      "ile": 6547,
      "ifor": 6548,
      "iod": 6549,
      "ives": 6550,
      "iant": 6551,
      "ials": 6552,
      "jour": 6553,
      "jab": 6554,
      "jars": 6555,
      "junk": 6556,
      "knight": 6557,
      "kart": 6558,
      "mboy": 6559,
      "mna": 6560,
      "might": 6561,
      "mmage": 6562,
      "num": 6563,
      "ov": 6564,
      "oll": 6565,
      "oam": 6566,
      "olit": 6567,
      "olymp": 6568,
      "pand": 6569,
      "pear": 6570,
      "pant": 6571,
      "ral": 6572,
      "swo": 6573,
      "sme": 6574,
      "sam": 6575,
      "sari": 6576,
      "tv": 6577,
      "tit": 6578,
      "tear": 6579,
      "tation": 6580,
      "tling": 6581,
      "turing": 6582,
      "ust": 6583,
      "ura": 6584,
      "ution": 6585,
      "uct": 6586,
      "uish": 6587,
      "vat": 6588,
      "vation": 6589,
      "vening": 6590,
      "wn": 6591,
      "wit": 6592,
      "wade": 6593,
      "welds": 6594,
      "xis": 6595,
      "yet": 6596,
      "years": 6597,
      "yawning": 6598,
      "int": 6599,
      "inting": 6600,
      "inse": 6601,
      "instruction": 6602,
      "invest": 6603,
      "infan": 6604,
      "informal": 6605,
      "intimate": 6606,
      "ances": 6607,
      "anitor": 6608,
      "ingly": 6609,
      "thread": 6610,
      "rees": 6611,
      "reco": 6612,
      "refu": 6613,
      "report": 6614,
      "remove": 6615,
      "removes": 6616,
      "reviewing": 6617,
      "representing": 6618,
      "region": 6619,
      "lee": 6620,
      "leis": 6621,
      "lete": 6622,
      "arma": 6623,
      "argu": 6624,
      "hijab": 6625,
      "manic": 6626,
      "mantle": 6627,
      "manhole": 6628,
      "manual": 6629,
      "anding": 6630,
      "andom": 6631,
      "atic": 6632,
      "atown": 6633,
      "attired": 6634,
      "state": 6635,
      "states": 6636,
      "strobe": 6637,
      "straining": 6638,
      "align": 6639,
      "alumin": 6640,
      "ism": 6641,
      "isha": 6642,
      "ision": 6643,
      "ladle": 6644,
      "laces": 6645,
      "label": 6646,
      "enclo": 6647,
      "enclosed": 6648,
      "enail": 6649,
      "enforcement": 6650,
      "iter": 6651,
      "itation": 6652,
      "itself": 6653,
      "owling": 6654,
      "ckled": 6655,
      "tote": 6656,
      "tori": 6657,
      "toba": 6658,
      "toenail": 6659,
      "orna": 6660,
      "orously": 6661,
      "ornament": 6662,
      "irking": 6663,
      "ete": 6664,
      "chet": 6665,
      "change": 6666,
      "chart": 6667,
      "opin": 6668,
      "opport": 6669,
      "iding": 6670,
      "iderman": 6671,
      "boa": 6672,
      "grid": 6673,
      "growing": 6674,
      "earch": 6675,
      "earbu": 6676,
      "earring": 6677,
      "ashore": 6678,
      "ook": 6679,
      "plains": 6680,
      "allowing": 6681,
      "telling": 6682,
      "tethered": 6683,
      "tells": 6684,
      "ico": 6685,
      "icap": 6686,
      "menus": 6687,
      "dod": 6688,
      "docu": 6689,
      "dojo": 6690,
      "dozen": 6691,
      "pep": 6692,
      "playhouse": 6693,
      "rored": 6694,
      "rose": 6695,
      "robed": 6696,
      "rods": 6697,
      "holing": 6698,
      "hoses": 6699,
      "hell": 6700,
      "heeled": 6701,
      "health": 6702,
      "union": 6703,
      "unity": 6704,
      "unice": 6705,
      "unload": 6706,
      "uncompleted": 6707,
      "unison": 6708,
      "geous": 6709,
      "geese": 6710,
      "geisha": 6711,
      "shion": 6712,
      "shielding": 6713,
      "wallet": 6714,
      "situ": 6715,
      "adding": 6716,
      "adven": 6717,
      "addresses": 6718,
      "advent": 6719,
      "addressing": 6720,
      "llip": 6721,
      "llister": 6722,
      "rakes": 6723,
      "rags": 6724,
      "rainst": 6725,
      "ragged": 6726,
      "meless": 6727,
      "meals": 6728,
      "best": 6729,
      "bered": 6730,
      "beans": 6731,
      "beag": 6732,
      "beauti": 6733,
      "beats": 6734,
      "beater": 6735,
      "irline": 6736,
      "youngsters": 6737,
      "rig": 6738,
      "rimp": 6739,
      "riotic": 6740,
      "blacktop": 6741,
      "blacksmith": 6742,
      "coin": 6743,
      "codi": 6744,
      "force": 6745,
      "forrest": 6746,
      "mping": 6747,
      "mpoo": 6748,
      "shun": 6749,
      "shroom": 6750,
      "shrimp": 6751,
      "tasty": 6752,
      "taxis": 6753,
      "urs": 6754,
      "urin": 6755,
      "secre": 6756,
      "sexy": 6757,
      "veil": 6758,
      "ounds": 6759,
      "lian": 6760,
      "lied": 6761,
      "limo": 6762,
      "lives": 6763,
      "livest": 6764,
      "licked": 6765,
      "lizard": 6766,
      "liberty": 6767,
      "stress": 6768,
      "streaks": 6769,
      "streached": 6770,
      "strewn": 6771,
      "soon": 6772,
      "sock": 6773,
      "solar": 6774,
      "somers": 6775,
      "fring": 6776,
      "fris": 6777,
      "bulls": 6778,
      "grouped": 6779,
      "loaf": 6780,
      "locked": 6781,
      "lollip": 6782,
      "streetlights": 6783,
      "outcrop": 6784,
      "outstreached": 6785,
      "neat": 6786,
      "needs": 6787,
      "amused": 6788,
      "hero": 6789,
      "walker": 6790,
      "walkie": 6791,
      "timber": 6792,
      "smirking": 6793,
      "uphill": 6794,
      "upcoming": 6795,
      "appla": 6796,
      "appre": 6797,
      "keeper": 6798,
      "mac": 6799,
      "math": 6800,
      "poker": 6801,
      "waterproof": 6802,
      "jug": 6803,
      "jugg": 6804,
      "dresser": 6805,
      "fist": 6806,
      "fists": 6807,
      "figur": 6808,
      "rung": 6809,
      "aches": 6810,
      "achshun": 6811,
      "para": 6812,
      "parks": 6813,
      "parlor": 6814,
      "backhand": 6815,
      "hatted": 6816,
      "rushing": 6817,
      "ruler": 6818,
      "liter": 6819,
      "littered": 6820,
      "index": 6821,
      "renaissance": 6822,
      "formers": 6823,
      "formations": 6824,
      "sips": 6825,
      "simul": 6826,
      "sipping": 6827,
      "sizes": 6828,
      "ridor": 6829,
      "elling": 6830,
      "cleats": 6831,
      "snar": 6832,
      "snoo": 6833,
      "grounds": 6834,
      "feed": 6835,
      "feeds": 6836,
      "paw": 6837,
      "page": 6838,
      "paving": 6839,
      "pastu": 6840,
      "pause": 6841,
      "pages": 6842,
      "assort": 6843,
      "snows": 6844,
      "snowfla": 6845,
      "snowshoe": 6846,
      "snowbank": 6847,
      "distor": 6848,
      "digger": 6849,
      "overall": 6850,
      "overlooks": 6851,
      "overpass": 6852,
      "tuba": 6853,
      "tulips": 6854,
      "boarders": 6855,
      "frog": 6856,
      "frosting": 6857,
      "terior": 6858,
      "condo": 6859,
      "consu": 6860,
      "handful": 6861,
      "handmade": 6862,
      "handkerchief": 6863,
      "acts": 6864,
      "achio": 6865,
      "trap": 6866,
      "ource": 6867,
      "moon": 6868,
      "moss": 6869,
      "moved": 6870,
      "mosque": 6871,
      "jackhammer": 6872,
      "waking": 6873,
      "scap": 6874,
      "scru": 6875,
      "hazard": 6876,
      "offers": 6877,
      "swer": 6878,
      "sweating": 6879,
      "stained": 6880,
      "trough": 6881,
      "trink": 6882,
      "trouble": 6883,
      "ceramic": 6884,
      "talkie": 6885,
      "topped": 6886,
      "headgear": 6887,
      "hairnet": 6888,
      "sunhats": 6889,
      "strumming": 6890,
      "spen": 6891,
      "spits": 6892,
      "spreading": 6893,
      "spreads": 6894,
      "spilled": 6895,
      "goof": 6896,
      "parka": 6897,
      "camcor": 6898,
      "dered": 6899,
      "demo": 6900,
      "devil": 6901,
      "dealer": 6902,
      "marina": 6903,
      "suite": 6904,
      "suited": 6905,
      "muters": 6906,
      "mushroom": 6907,
      "meter": 6908,
      "metric": 6909,
      "cameramen": 6910,
      "woodworking": 6911,
      "ctic": 6912,
      "antic": 6913,
      "shots": 6914,
      "elbow": 6915,
      "panel": 6916,
      "paneled": 6917,
      "cages": 6918,
      "study": 6919,
      "bushel": 6920,
      "cushion": 6921,
      "blonds": 6922,
      "jogger": 6923,
      "merized": 6924,
      "presu": 6925,
      "prevent": 6926,
      "pretends": 6927,
      "pregnant": 6928,
      "quilt": 6929,
      "chew": 6930,
      "cheers": 6931,
      "footprints": 6932,
      "sandpit": 6933,
      "olate": 6934,
      "save": 6935,
      "sauna": 6936,
      "colon": 6937,
      "underway": 6938,
      "entre": 6939,
      "enters": 6940,
      "boating": 6941,
      "session": 6942,
      "specta": 6943,
      "trio": 6944,
      "trips": 6945,
      "tane": 6946,
      "tanned": 6947,
      "mical": 6948,
      "signal": 6949,
      "provide": 6950,
      "program": 6951,
      "procession": 6952,
      "towed": 6953,
      "towering": 6954,
      "aut": 6955,
      "darkly": 6956,
      "darkness": 6957,
      "cord": 6958,
      "corral": 6959,
      "corridor": 6960,
      "barbie": 6961,
      "exe": 6962,
      "exit": 6963,
      "exca": 6964,
      "exposing": 6965,
      "expensive": 6966,
      "whose": 6967,
      "vivid": 6968,
      "flotation": 6969,
      "winded": 6970,
      "such": 6971,
      "suds": 6972,
      "suspen": 6973,
      "nia": 6974,
      "nibbling": 6975,
      "creative": 6976,
      "wheat": 6977,
      "related": 6978,
      "reluct": 6979,
      "sleigh": 6980,
      "aging": 6981,
      "agility": 6982,
      "applied": 6983,
      "huts": 6984,
      "huddling": 6985,
      "trek": 6986,
      "treats": 6987,
      "flamboy": 6988,
      "gig": 6989,
      "gifts": 6990,
      "Younger": 6991,
      "descri": 6992,
      "desolate": 6993,
      "canes": 6994,
      "canned": 6995,
      "canister": 6996,
      "dries": 6997,
      "dried": 6998,
      "drift": 6999,
      "sticker": 7000,
      "bowed": 7001,
      "pastor": 7002,
      "pastel": 7003,
      "ouching": 7004,
      "restaurants": 7005,
      "baggage": 7006,
      "bagpipe": 7007,
      "capes": 7008,
      "captain": 7009,
      "captured": 7010,
      "captures": 7011,
      "skim": 7012,
      "packages": 7013,
      "highly": 7014,
      "aki": 7015,
      "ducking": 7016,
      "duffel": 7017,
      "bears": 7018,
      "machete": 7019,
      "services": 7020,
      "kicker": 7021,
      "tural": 7022,
      "turbans": 7023,
      "shampoo": 7024,
      "faced": 7025,
      "facade": 7026,
      "banquet": 7027,
      "fliers": 7028,
      "flights": 7029,
      "county": 7030,
      "counters": 7031,
      "mesmerized": 7032,
      "interior": 7033,
      "views": 7034,
      "lottery": 7035,
      "gyps": 7036,
      "temporary": 7037,
      "wheeling": 7038,
      "stock": 7039,
      "pointy": 7040,
      "curling": 7041,
      "planes": 7042,
      "dentist": 7043,
      "monks": 7044,
      "monster": 7045,
      "rappelling": 7046,
      "pharma": 7047,
      "takeout": 7048,
      "kissed": 7049,
      "batons": 7050,
      "battling": 7051,
      "railway": 7052,
      "garment": 7053,
      "films": 7054,
      "vention": 7055,
      "took": 7056,
      "better": 7057,
      "stetho": 7058,
      "statute": 7059,
      "landmark": 7060,
      "landscap": 7061,
      "ronaut": 7062,
      "equipped": 7063,
      "bordering": 7064,
      "bordered": 7065,
      "rowers": 7066,
      "meditating": 7067,
      "squirt": 7068,
      "squinting": 7069,
      "cracks": 7070,
      "happening": 7071,
      "patrol": 7072,
      "patriotic": 7073,
      "wrong": 7074,
      "Grouch": 7075,
      "kier": 7076,
      "animated": 7077,
      "protester": 7078,
      "schoolgirl": 7079,
      "waited": 7080,
      "France": 7081,
      "breakfast": 7082,
      "multit": 7083,
      "cutout": 7084,
      "cutoff": 7085,
      "paintball": 7086,
      "pets": 7087,
      "lence": 7088,
      "electrical": 7089,
      "hamburgers": 7090,
      "hamburger": 7091,
      "pairs": 7092,
      "ported": 7093,
      "research": 7094,
      "mirrored": 7095,
      "director": 7096,
      "directed": 7097,
      "fences": 7098,
      "pitches": 7099,
      "pitched": 7100,
      "audio": 7101,
      "onlooker": 7102,
      "chaeo": 7103,
      "collide": 7104,
      "sweet": 7105,
      "sweep": 7106,
      "surfboards": 7107,
      "layered": 7108,
      "violins": 7109,
      "violinist": 7110,
      "observed": 7111,
      "countertop": 7112,
      "astronaut": 7113,
      "sleds": 7114,
      "sledge": 7115,
      "shading": 7116,
      "shaded": 7117,
      "partner": 7118,
      "burn": 7119,
      "participants": 7120,
      "golfer": 7121,
      "campaign": 7122,
      "electrician": 7123,
      "contin": 7124,
      "attend": 7125,
      "pierced": 7126,
      "final": 7127,
      "princess": 7128,
      "Dozens": 7129,
      "dishwasher": 7130,
      "knits": 7131,
      "ponders": 7132,
      "napkin": 7133,
      "dunks": 7134,
      "elementary": 7135,
      "housing": 7136,
      "hurdles": 7137,
      "streams": 7138,
      "contains": 7139,
      "decker": 7140,
      "coverings": 7141,
      "approxim": 7142,
      "mustachio": 7143,
      "kinds": 7144,
      "attaches": 7145,
      "professionally": 7146,
      "pressing": 7147,
      "presses": 7148,
      "mopping": 7149,
      "sprinkles": 7150,
      "sprinkled": 7151,
      "sprinkling": 7152,
      "donuts": 7153,
      "keyboards": 7154,
      "scoops": 7155,
      "braces": 7156,
      "engages": 7157,
      "sheepdog": 7158,
      "effort": 7159,
      "vacant": 7160,
      "yota": 7161,
      "records": 7162,
      "positions": 7163,
      "trots": 7164,
      "referees": 7165,
      "charging": 7166,
      "fingernail": 7167,
      "fingertips": 7168,
      "mixes": 7169,
      "mixed": 7170,
      "racquet": 7171,
      "transporting": 7172,
      "speakers": 7173,
      "entertains": 7174,
      "entertaining": 7175,
      "entertained": 7176,
      "entertainment": 7177,
      "peaceful": 7178,
      "mustached": 7179,
      "bouncer": 7180,
      "bounces": 7181,
      "bouncy": 7182,
      "ginger": 7183,
      "salmon": 7184,
      "rubbing": 7185,
      "collected": 7186,
      "descends": 7187,
      "Chef": 7188,
      "freeway": 7189,
      "nuts": 7190,
      "ironing": 7191,
      "cereal": 7192,
      "trumpets": 7193,
      "ponytails": 7194,
      "Joe": 7195,
      "Jockey": 7196,
      "Love": 7197,
      "Mom": 7198,
      "warmly": 7199,
      "dumps": 7200,
      "protesters": 7201,
      "heartbeat": 7202,
      "Hollister": 7203,
      "Homeless": 7204,
      "extra": 7205,
      "extends": 7206,
      "xiously": 7207,
      "crashes": 7208,
      "crashed": 7209,
      "focuses": 7210,
      "BMW": 7211,
      "aquatic": 7212,
      "propane": 7213,
      "spiking": 7214,
      "twigs": 7215,
      "twilight": 7216,
      "leafy": 7217,
      "supervis": 7218,
      "Firetrucks": 7219,
      "Student": 7220,
      "lounges": 7221,
      "nursing": 7222,
      "wildflowers": 7223,
      "cobbled": 7224,
      "ballerinas": 7225,
      "patiently": 7226,
      "villagers": 7227,
      "ferry": 7228,
      "popul": 7229,
      "popping": 7230,
      "patches": 7231,
      "grandmother": 7232,
      "granddaughter": 7233,
      "texas": 7234,
      "bulance": 7235,
      "bullet": 7236,
      "parasail": 7237,
      "pumpkins": 7238,
      "craftsman": 7239,
      "Budd": 7240,
      "Lead": 7241,
      "Road": 7242,
      "primit": 7243,
      "organized": 7244,
      "briskly": 7245,
      "demonstrates": 7246,
      "plugging": 7247,
      "vigorously": 7248,
      "dustpan": 7249,
      "similarly": 7250,
      "euro": 7251,
      "knives": 7252,
      "notebooks": 7253,
      "enthusiast": 7254,
      "enthusiasm": 7255,
      "technic": 7256,
      "poorly": 7257,
      "tricycles": 7258,
      "screams": 7259,
      "impro": 7260,
      "paying": 7261,
      "tasks": 7262,
      "eteran": 7263,
      "tickets": 7264,
      "featured": 7265,
      "handlebars": 7266,
      "portraits": 7267,
      "shadowed": 7268,
      "leotards": 7269,
      "fitness": 7270,
      "jazz": 7271,
      "shelf": 7272,
      "shelter": 7273,
      "recliner": 7274,
      "blurry": 7275,
      "fierce": 7276,
      "defends": 7277,
      "briefs": 7278,
      "horizont": 7279,
      "uniquely": 7280,
      "Mexico": 7281,
      "Player": 7282,
      "namese": 7283,
      "powerpoint": 7284,
      "rises": 7285,
      "removed": 7286,
      "maneuvers": 7287,
      "maneuvering": 7288,
      "assembly": 7289,
      "unusually": 7290,
      "measure": 7291,
      "amazing": 7292,
      "pockets": 7293,
      "tuxedos": 7294,
      "accompanies": 7295,
      "explores": 7296,
      "explosion": 7297,
      "explorer": 7298,
      "navigating": 7299,
      "potatoes": 7300,
      "elevator": 7301,
      "fati": 7302,
      "flood": 7303,
      "flooded": 7304,
      "latex": 7305,
      "overse": 7306,
      "sparkler": 7307,
      "sparklers": 7308,
      "vaulting": 7309,
      "arrival": 7310,
      "launching": 7311,
      "launches": 7312,
      "forklift": 7313,
      "butchering": 7314,
      "diverse": 7315,
      "tutus": 7316,
      "decals": 7317,
      "twirl": 7318,
      "twirls": 7319,
      "vacuums": 7320,
      "retriever": 7321,
      "SquarePants": 7322,
      "Skier": 7323,
      "Skiers": 7324,
      "Wii": 7325,
      "crotch": 7326,
      "crocodi": 7327,
      "everywhere": 7328,
      "stony": 7329,
      "issue": 7330,
      "scraper": 7331,
      "awnings": 7332,
      "graduate": 7333,
      "Looks": 7334,
      "Rugby": 7335,
      "Team": 7336,
      "clasp": 7337,
      "clams": 7338,
      "cycles": 7339,
      "honor": 7340,
      "ritual": 7341,
      "wonder": 7342,
      "staying": 7343,
      "toilets": 7344,
      "secure": 7345,
      "secured": 7346,
      "lassoing": 7347,
      "sponge": 7348,
      "cabinet": 7349,
      "flashlight": 7350,
      "turtleneck": 7351,
      "chipper": 7352,
      "congregating": 7353,
      "congregated": 7354,
      "mannequins": 7355,
      "Autumn": 7356,
      "Excited": 7357,
      "Latino": 7358,
      "noodle": 7359,
      "wristband": 7360,
      "ripp": 7361,
      "ripped": 7362,
      "sippy": 7363,
      "bathed": 7364,
      "spiral": 7365,
      "sprints": 7366,
      "safely": 7367,
      "clerk": 7368,
      "videotapes": 7369,
      "piercings": 7370,
      "released": 7371,
      "holidays": 7372,
      "Soldiers": 7373,
      "Snowboarder": 7374,
      "detail": 7375,
      "moose": 7376,
      "natural": 7377,
      "zombies": 7378,
      "zombie": 7379,
      "challenge": 7380,
      "gripping": 7381,
      "bumper": 7382,
      "needed": 7383,
      "crystal": 7384,
      "barricades": 7385,
      "skillfully": 7386,
      "affection": 7387,
      "proudly": 7388,
      "ponchos": 7389,
      "Workmen": 7390,
      "Athletes": 7391,
      "Califor": 7392,
      "Ford": 7393,
      "Italian": 7394,
      "Monopoly": 7395,
      "Overhead": 7396,
      "Picture": 7397,
      "Toyota": 7398,
      "drunk": 7399,
      "ecstat": 7400,
      "guest": 7401,
      "llama": 7402,
      "pouting": 7403,
      "rofoam": 7404,
      "rooster": 7405,
      "answers": 7406,
      "responding": 7407,
      "rectangu": 7408,
      "rehearsing": 7409,
      "arranged": 7410,
      "grimacing": 7411,
      "admires": 7412,
      "solider": 7413,
      "outfielder": 7414,
      "Angels": 7415,
      "pleasant": 7416,
      "slowly": 7417,
      "prayer": 7418,
      "penguin": 7419,
      "refreshing": 7420,
      "saxophones": 7421,
      "Company": 7422,
      "fleece": 7423,
      "Colorful": 7424,
      "recently": 7425,
      "depicting": 7426,
      "tambourine": 7427,
      "Africa": 7428,
      "Brazil": 7429,
      "Dressed": 7430,
      "Gymna": 7431,
      "SUV": 7432,
      "gorgeous": 7433,
      "pruning": 7434,
      "route": 7435,
      "satchel": 7436,
      "threw": 7437,
      "lakeside": 7438,
      "geometric": 7439,
      "advantage": 7440,
      "fortune": 7441,
      "seamstress": 7442,
      "mosaic": 7443,
      "metropolit": 7444,
      "pursued": 7445,
      "dugout": 7446,
      "families": 7447,
      "physic": 7448,
      "Individuals": 7449,
      "seemingly": 7450,
      "miniskirt": 7451,
      "screwdriver": 7452,
      "Teenagers": 7453,
      "blossoming": 7454,
      "government": 7455,
      "utensils": 7456,
      "3rd": 7457,
      "Berlin": 7458,
      "Batman": 7459,
      "Ethnic": 7460,
      "Employe": 7461,
      "Korean": 7462,
      "Nintendo": 7463,
      "Pitcher": 7464,
      "Pizza": 7465,
      "Renaissance": 7466,
      "Sitting": 7467,
      "Scottish": 7468,
      "dandeli": 7469,
      "drenched": 7470,
      "dwelling": 7471,
      "journal": 7472,
      "numbered": 7473,
      "ollie": 7474,
      "panda": 7475,
      "samura": 7476,
      "infants": 7477,
      "refuge": 7478,
      "arguing": 7479,
      "aluminum": 7480,
      "enclosure": 7481,
      "tobacco": 7482,
      "opportunity": 7483,
      "earbuds": 7484,
      "icapped": 7485,
      "healthcare": 7486,
      "unicef": 7487,
      "adventure": 7488,
      "rainstorm": 7489,
      "beagle": 7490,
      "beautifully": 7491,
      "livestock": 7492,
      "somersault": 7493,
      "lollipop": 7494,
      "outcropping": 7495,
      "simultane": 7496,
      "assortment": 7497,
      "distorted": 7498,
      "camcorder": 7499,
      "spectacular": 7500,
      "gypsy": 7501,
      "stethoscope": 7502,
      "approximately": 7503,
      "mustachioed": 7504,
      "primitive": 7505,
      "crocodile": 7506,
      "California": 7507,
      "rectangular": 7508,
      "Gymnast": 7509,
      "metropolitan": 7510,
      "samurai": 7511,
      "13": 7512,
      "18": 7513,
      "100": 7514,
      "195": 7515,
      "25": 7516,
      "28": 7517,
      "38": 7518,
      "50": 7519,
      "63": 7520,
      "80": 7521,
      "96": 7522,
      "AA": 7523,
      "AH": 7524,
      "AL": 7525,
      "AM": 7526,
      "AN": 7527,
      "AR": 7528,
      "Ac": 7529,
      "Av": 7530,
      "Ala": 7531,
      "Ado": 7532,
      "Astro": 7533,
      "After": 7534,
      "ACE": 7535,
      "AGA": 7536,
      "Airline": 7537,
      "BA": 7538,
      "Bes": 7539,
      "Bare": 7540,
      "Beach": 7541,
      "Brides": 7542,
      "Bird": 7543,
      "Bright": 7544,
      "Birthday": 7545,
      "Brick": 7546,
      "Bank": 7547,
      "Block": 7548,
      "CU": 7549,
      "Cor": 7550,
      "Cro": 7551,
      "Cri": 7552,
      "Centr": 7553,
      "Da": 7554,
      "Di": 7555,
      "Din": 7556,
      "Doo": 7557,
      "Dep": 7558,
      "Dob": 7559,
      "Dav": 7560,
      "Dane": 7561,
      "Dame": 7562,
      "Darth": 7563,
      "EN": 7564,
      "EP": 7565,
      "ER": 7566,
      "Eu": 7567,
      "Every": 7568,
      "Egy": 7569,
      "EGO": 7570,
      "Earth": 7571,
      "Evening": 7572,
      "Fin": 7573,
      "Fat": 7574,
      "Fair": 7575,
      "Free": 7576,
      "Fans": 7577,
      "Farm": 7578,
      "Ge": 7579,
      "Go": 7580,
      "Gra": 7581,
      "Gold": 7582,
      "Glass": 7583,
      "Giant": 7584,
      "HO": 7585,
      "HS": 7586,
      "Hou": 7587,
      "Hop": 7588,
      "House": 7589,
      "Holding": 7590,
      "Hero": 7591,
      "Iow": 7592,
      "Isla": 7593,
      "ICE": 7594,
      "Jes": 7595,
      "Jump": 7596,
      "James": 7597,
      "Just": 7598,
      "KE": 7599,
      "Ka": 7600,
      "King": 7601,
      "Kle": 7602,
      "Kar": 7603,
      "Kit": 7604,
      "Kill": 7605,
      "Keep": 7606,
      "Lu": 7607,
      "Las": 7608,
      "Lab": 7609,
      "Live": 7610,
      "Law": 7611,
      "My": 7612,
      "Mor": 7613,
      "Mic": 7614,
      "May": 7615,
      "Mike": 7616,
      "MMA": 7617,
      "Nan": 7618,
      "Nor": 7619,
      "Nes": 7620,
      "Near": 7621,
      "Nur": 7622,
      "Navy": 7623,
      "OR": 7624,
      "OU": 7625,
      "Oh": 7626,
      "Op": 7627,
      "Ox": 7628,
      "Ore": 7629,
      "Ohio": 7630,
      "OME": 7631,
      "Pa": 7632,
      "Pu": 7633,
      "Pen": 7634,
      "Pet": 7635,
      "Pass": 7636,
      "Pab": 7637,
      "Power": 7638,
      "Prin": 7639,
      "Pain": 7640,
      "Poke": 7641,
      "Prof": 7642,
      "RV": 7643,
      "Rep": 7644,
      "Rican": 7645,
      "Rail": 7646,
      "Rider": 7647,
      "Ser": 7648,
      "Sou": 7649,
      "Sand": 7650,
      "Sal": 7651,
      "Ses": 7652,
      "Smo": 7653,
      "Stop": 7654,
      "Sveral": 7655,
      "Scu": 7656,
      "Shor": 7657,
      "Sled": 7658,
      "Sty": 7659,
      "Sum": 7660,
      "Scoo": 7661,
      "Story": 7662,
      "Space": 7663,
      "SCU": 7664,
      "Ta": 7665,
      "Tan": 7666,
      "Tar": 7667,
      "Twi": 7668,
      "Tor": 7669,
      "Top": 7670,
      "Tall": 7671,
      "Tho": 7672,
      "Tri": 7673,
      "Tree": 7674,
      "Teach": 7675,
      "Tank": 7676,
      "Ur": 7677,
      "UFC": 7678,
      "VW": 7679,
      "Vir": 7680,
      "Vic": 7681,
      "Very": 7682,
      "Viet": 7683,
      "Veteran": 7684,
      "Won": 7685,
      "Watch": 7686,
      "Wood": 7687,
      "Water": 7688,
      "Walk": 7689,
      "Waters": 7690,
      "XX": 7691,
      "Yan": 7692,
      "Year": 7693,
      "YMC": 7694,
      "Zun": 7695,
      "ace": 7696,
      "afr": 7697,
      "asts": 7698,
      "aired": 7699,
      "awaiting": 7700,
      "awing": 7701,
      "ably": 7702,
      "awk": 7703,
      "aoke": 7704,
      "bone": 7705,
      "bree": 7706,
      "bits": 7707,
      "bowing": 7708,
      "bors": 7709,
      "binder": 7710,
      "bonding": 7711,
      "cis": 7712,
      "cad": 7713,
      "cass": 7714,
      "cture": 7715,
      "chim": 7716,
      "cent": 7717,
      "curing": 7718,
      "cramp": 7719,
      "ccess": 7720,
      "could": 7721,
      "dj": 7722,
      "dou": 7723,
      "dir": 7724,
      "doo": 7725,
      "dic": 7726,
      "dumb": 7727,
      "dapp": 7728,
      "drais": 7729,
      "dachshun": 7730,
      "eer": 7731,
      "ever": 7732,
      "ecle": 7733,
      "eleg": 7734,
      "egre": 7735,
      "fid": 7736,
      "fare": 7737,
      "fear": 7738,
      "fles": 7739,
      "fres": 7740,
      "fishermen": 7741,
      "gir": 7742,
      "glit": 7743,
      "gway": 7744,
      "gles": 7745,
      "gling": 7746,
      "gons": 7747,
      "gates": 7748,
      "glow": 7749,
      "hs": 7750,
      "hack": 7751,
      "hoping": 7752,
      "ith": 7753,
      "iard": 7754,
      "iled": 7755,
      "ivi": 7756,
      "iments": 7757,
      "ights": 7758,
      "iker": 7759,
      "ique": 7760,
      "jou": 7761,
      "jac": 7762,
      "japan": 7763,
      "janitor": 7764,
      "kabo": 7765,
      "kill": 7766,
      "knot": 7767,
      "lp": 7768,
      "lons": 7769,
      "ltry": 7770,
      "later": 7771,
      "lics": 7772,
      "london": 7773,
      "mal": 7774,
      "mong": 7775,
      "mold": 7776,
      "mover": 7777,
      "mine": 7778,
      "mits": 7779,
      "mort": 7780,
      "mood": 7781,
      "mined": 7782,
      "mmers": 7783,
      "ng": 7784,
      "nan": 7785,
      "noun": 7786,
      "nical": 7787,
      "nches": 7788,
      "names": 7789,
      "norm": 7790,
      "obl": 7791,
      "ored": 7792,
      "ota": 7793,
      "oles": 7794,
      "oms": 7795,
      "oak": 7796,
      "ograp": 7797,
      "osed": 7798,
      "oars": 7799,
      "oxy": 7800,
      "oopy": 7801,
      "pf": 7802,
      "pid": 7803,
      "pun": 7804,
      "pard": 7805,
      "pout": 7806,
      "ply": 7807,
      "piling": 7808,
      "penter": 7809,
      "quit": 7810,
      "rl": 7811,
      "rat": 7812,
      "rup": 7813,
      "rying": 7814,
      "rine": 7815,
      "rates": 7816,
      "rors": 7817,
      "rising": 7818,
      "rics": 7819,
      "san": 7820,
      "sou": 7821,
      "sac": 7822,
      "sous": 7823,
      "smel": 7824,
      "sends": 7825,
      "sending": 7826,
      "slips": 7827,
      "slim": 7828,
      "source": 7829,
      "tis": 7830,
      "tren": 7831,
      "tter": 7832,
      "troll": 7833,
      "tons": 7834,
      "treads": 7835,
      "tears": 7836,
      "tilts": 7837,
      "twin": 7838,
      "tilla": 7839,
      "tilted": 7840,
      "ux": 7841,
      "uth": 7842,
      "uting": 7843,
      "ugh": 7844,
      "ush": 7845,
      "uve": 7846,
      "uding": 7847,
      "uggling": 7848,
      "vre": 7849,
      "vul": 7850,
      "vate": 7851,
      "vise": 7852,
      "voc": 7853,
      "vase": 7854,
      "wre": 7855,
      "weld": 7856,
      "wha": 7857,
      "wits": 7858,
      "wise": 7859,
      "wrists": 7860,
      "wrench": 7861,
      "wants": 7862,
      "welder": 7863,
      "would": 7864,
      "wounds": 7865,
      "xican": 7866,
      "yl": 7867,
      "yan": 7868,
      "ythe": 7869,
      "yor": 7870,
      "zag": 7871,
      "zels": 7872,
      "zig": 7873,
      "infield": 7874,
      "intr": 7875,
      "intri": 7876,
      "inno": 7877,
      "inless": 7878,
      "inary": 7879,
      "inches": 7880,
      "incen": 7881,
      "incred": 7882,
      "informally": 7883,
      "anor": 7884,
      "anian": 7885,
      "anxiously": 7886,
      "ancis": 7887,
      "announ": 7888,
      "thro": 7889,
      "thong": 7890,
      "thouse": 7891,
      "reas": 7892,
      "rene": 7893,
      "rema": 7894,
      "resc": 7895,
      "reci": 7896,
      "refri": 7897,
      "referen": 7898,
      "repor": 7899,
      "regard": 7900,
      "reaction": 7901,
      "reacting": 7902,
      "remember": 7903,
      "resem": 7904,
      "recycling": 7905,
      "repelling": 7906,
      "ongh": 7907,
      "onry": 7908,
      "oncoming": 7909,
      "lev": 7910,
      "lego": 7911,
      "letting": 7912,
      "lechase": 7913,
      "lease": 7914,
      "aran": 7915,
      "aring": 7916,
      "arly": 7917,
      "armo": 7918,
      "array": 7919,
      "archaeo": 7920,
      "hid": 7921,
      "hier": 7922,
      "hist": 7923,
      "hide": 7924,
      "hides": 7925,
      "higan": 7926,
      "hitching": 7927,
      "mane": 7928,
      "manu": 7929,
      "manner": 7930,
      "manage": 7931,
      "manip": 7932,
      "manure": 7933,
      "then": 7934,
      "theast": 7935,
      "oupe": 7936,
      "ands": 7937,
      "atm": 7938,
      "att": 7939,
      "atv": 7940,
      "atyl": 7941,
      "stout": 7942,
      "stap": 7943,
      "strung": 7944,
      "wok": 7945,
      "alo": 7946,
      "alof": 7947,
      "albu": 7948,
      "alter": 7949,
      "alled": 7950,
      "alie": 7951,
      "alpine": 7952,
      "always": 7953,
      "alom": 7954,
      "aloud": 7955,
      "iser": 7956,
      "isle": 7957,
      "lack": 7958,
      "lace": 7959,
      "labr": 7960,
      "laven": 7961,
      "lava": 7962,
      "eners": 7963,
      "envel": 7964,
      "entry": 7965,
      "ential": 7966,
      "ensem": 7967,
      "ensure": 7968,
      "itti": 7969,
      "itate": 7970,
      "itage": 7971,
      "itude": 7972,
      "wielding": 7973,
      "owl": 7974,
      "ckle": 7975,
      "cken": 7976,
      "ckles": 7977,
      "toes": 7978,
      "toting": 7979,
      "toll": 7980,
      "toil": 7981,
      "orted": 7982,
      "ordin": 7983,
      "orig": 7984,
      "irrel": 7985,
      "irons": 7986,
      "irrit": 7987,
      "espress": 7988,
      "etti": 7989,
      "chor": 7990,
      "chun": 7991,
      "chard": 7992,
      "changing": 7993,
      "idle": 7994,
      "idoo": 7995,
      "bored": 7996,
      "bomb": 7997,
      "bodies": 7998,
      "edle": 7999,
      "grin": 8000,
      "grate": 8001,
      "gration": 8002,
      "grinning": 8003,
      "grilled": 8004,
      "growling": 8005,
      "asy": 8006,
      "aside": 8007,
      "assign": 8008,
      "asians": 8009,
      "ooth": 8010,
      "oody": 8011,
      "oodle": 8012,
      "plaster": 8013,
      "placard": 8014,
      "plaque": 8015,
      "placid": 8016,
      "teas": 8017,
      "tell": 8018,
      "tests": 8019,
      "teeter": 8020,
      "ict": 8021,
      "icing": 8022,
      "ices": 8023,
      "iced": 8024,
      "icic": 8025,
      "icul": 8026,
      "icate": 8027,
      "mental": 8028,
      "dos": 8029,
      "pean": 8030,
      "peas": 8031,
      "pered": 8032,
      "peep": 8033,
      "pect": 8034,
      "pebbles": 8035,
      "pecta": 8036,
      "ros": 8037,
      "roy": 8038,
      "role": 8039,
      "hog": 8040,
      "host": 8041,
      "hoes": 8042,
      "holl": 8043,
      "homes": 8044,
      "hokey": 8045,
      "hoist": 8046,
      "hovering": 8047,
      "heel": 8048,
      "height": 8049,
      "unt": 8050,
      "unke": 8051,
      "unny": 8052,
      "unders": 8053,
      "unwraps": 8054,
      "unfriendly": 8055,
      "tingent": 8056,
      "tinguish": 8057,
      "shish": 8058,
      "shield": 8059,
      "shift": 8060,
      "ssing": 8061,
      "blues": 8062,
      "bloody": 8063,
      "sites": 8064,
      "ada": 8065,
      "ading": 8066,
      "addle": 8067,
      "adds": 8068,
      "adjac": 8069,
      "adoodle": 8070,
      "llution": 8071,
      "owned": 8072,
      "rather": 8073,
      "racks": 8074,
      "raging": 8075,
      "ghthouse": 8076,
      "ghetti": 8077,
      "meats": 8078,
      "mexican": 8079,
      "bemu": 8080,
      "beau": 8081,
      "become": 8082,
      "beaker": 8083,
      "celer": 8084,
      "blasts": 8085,
      "blading": 8086,
      "rior": 8087,
      "rible": 8088,
      "ribs": 8089,
      "riously": 8090,
      "rifles": 8091,
      "blackboard": 8092,
      "cob": 8093,
      "cola": 8094,
      "coke": 8095,
      "coworker": 8096,
      "watered": 8097,
      "mph": 8098,
      "mpt": 8099,
      "mper": 8100,
      "mply": 8101,
      "mples": 8102,
      "mphon": 8103,
      "mpoms": 8104,
      "oneer": 8105,
      "shouts": 8106,
      "shab": 8107,
      "shments": 8108,
      "shined": 8109,
      "shrubb": 8110,
      "shut": 8111,
      "shrine": 8112,
      "tact": 8113,
      "taped": 8114,
      "taping": 8115,
      "tailed": 8116,
      "urn": 8117,
      "ury": 8118,
      "urous": 8119,
      "urry": 8120,
      "vern": 8121,
      "seal": 8122,
      "sequ": 8123,
      "selec": 8124,
      "semin": 8125,
      "sews": 8126,
      "securing": 8127,
      "serene": 8128,
      "veyor": 8129,
      "balling": 8130,
      "lia": 8131,
      "lians": 8132,
      "likes": 8133,
      "lizing": 8134,
      "lifier": 8135,
      "lighthouse": 8136,
      "soak": 8137,
      "soaking": 8138,
      "sodas": 8139,
      "frond": 8140,
      "frant": 8141,
      "bug": 8142,
      "bust": 8143,
      "buck": 8144,
      "busk": 8145,
      "bular": 8146,
      "buys": 8147,
      "bucked": 8148,
      "bulent": 8149,
      "loves": 8150,
      "loses": 8151,
      "logi": 8152,
      "lovers": 8153,
      "locking": 8154,
      "loved": 8155,
      "lodge": 8156,
      "downing": 8157,
      "downward": 8158,
      "downwards": 8159,
      "outboard": 8160,
      "necks": 8161,
      "amond": 8162,
      "amber": 8163,
      "ambulance": 8164,
      "amaran": 8165,
      "heron": 8166,
      "herbs": 8167,
      "hernal": 8168,
      "heritage": 8169,
      "ils": 8170,
      "ays": 8171,
      "tim": 8172,
      "tian": 8173,
      "tives": 8174,
      "times": 8175,
      "timore": 8176,
      "tipping": 8177,
      "tilizing": 8178,
      "smear": 8179,
      "smart": 8180,
      "upraised": 8181,
      "upturned": 8182,
      "bring": 8183,
      "brand": 8184,
      "brook": 8185,
      "aphernal": 8186,
      "Their": 8187,
      "kelp": 8188,
      "carol": 8189,
      "carav": 8190,
      "carpenter": 8191,
      "maje": 8192,
      "maker": 8193,
      "maids": 8194,
      "mably": 8195,
      "mauve": 8196,
      "pomer": 8197,
      "pollution": 8198,
      "pompoms": 8199,
      "watery": 8200,
      "juggle": 8201,
      "filed": 8202,
      "sideline": 8203,
      "worn": 8204,
      "worried": 8205,
      "parrot": 8206,
      "paraphernal": 8207,
      "somebody": 8208,
      "backing": 8209,
      "backed": 8210,
      "backflip": 8211,
      "reenact": 8212,
      "hatchet": 8213,
      "rust": 8214,
      "rugged": 8215,
      "rusted": 8216,
      "ska": 8217,
      "skit": 8218,
      "greens": 8219,
      "greenhouse": 8220,
      "inding": 8221,
      "indeer": 8222,
      "bians": 8223,
      "bibs": 8224,
      "bistro": 8225,
      "rent": 8226,
      "renov": 8227,
      "former": 8228,
      "Thai": 8229,
      "Thurs": 8230,
      "sill": 8231,
      "size": 8232,
      "sibling": 8233,
      "sisters": 8234,
      "simple": 8235,
      "simply": 8236,
      "ridge": 8237,
      "blem": 8238,
      "ello": 8239,
      "eller": 8240,
      "cled": 8241,
      "clever": 8242,
      "clenches": 8243,
      "snail": 8244,
      "snoopy": 8245,
      "snuggling": 8246,
      "feels": 8247,
      "paired": 8248,
      "pamph": 8249,
      "throughout": 8250,
      "cris": 8251,
      "crow": 8252,
      "crank": 8253,
      "assorted": 8254,
      "bale": 8255,
      "baking": 8256,
      "bake": 8257,
      "bales": 8258,
      "baker": 8259,
      "baza": 8260,
      "snowsuits": 8261,
      "snowmobile": 8262,
      "snowstorm": 8263,
      "snowmob": 8264,
      "snowdrift": 8265,
      "dip": 8266,
      "dist": 8267,
      "diaper": 8268,
      "diffic": 8269,
      "distr": 8270,
      "distra": 8271,
      "diplo": 8272,
      "divid": 8273,
      "diamond": 8274,
      "brownish": 8275,
      "overcast": 8276,
      "tuce": 8277,
      "tugs": 8278,
      "tucked": 8279,
      "ulk": 8280,
      "ulic": 8281,
      "frolic": 8282,
      "frothy": 8283,
      "frolics": 8284,
      "terror": 8285,
      "conf": 8286,
      "conce": 8287,
      "condi": 8288,
      "contor": 8289,
      "conif": 8290,
      "concession": 8291,
      "contingent": 8292,
      "conveyor": 8293,
      "handhold": 8294,
      "handled": 8295,
      "handler": 8296,
      "handbags": 8297,
      "handgun": 8298,
      "handshake": 8299,
      "handicapped": 8300,
      "acy": 8301,
      "acas": 8302,
      "active": 8303,
      "builder": 8304,
      "tractive": 8305,
      "traverse": 8306,
      "inky": 8307,
      "ourful": 8308,
      "mode": 8309,
      "nears": 8310,
      "jackhammers": 8311,
      "glassy": 8312,
      "wavy": 8313,
      "waffle": 8314,
      "wagons": 8315,
      "pud": 8316,
      "puff": 8317,
      "scan": 8318,
      "scoring": 8319,
      "scrubbing": 8320,
      "scythe": 8321,
      "Pee": 8322,
      "angels": 8323,
      "pired": 8324,
      "pigs": 8325,
      "pipers": 8326,
      "hamper": 8327,
      "based": 8328,
      "offer": 8329,
      "swung": 8330,
      "swallowing": 8331,
      "swaddle": 8332,
      "clicking": 8333,
      "clips": 8334,
      "stake": 8335,
      "stainless": 8336,
      "true": 8337,
      "trade": 8338,
      "certific": 8339,
      "perfu": 8340,
      "peruses": 8341,
      "percuss": 8342,
      "period": 8343,
      "sidewalks": 8344,
      "topping": 8345,
      "worked": 8346,
      "workmen": 8347,
      "clog": 8348,
      "closing": 8349,
      "header": 8350,
      "headlight": 8351,
      "headdresses": 8352,
      "headfirst": 8353,
      "ores": 8354,
      "ineken": 8355,
      "hairy": 8356,
      "hairdo": 8357,
      "hairdresser": 8358,
      "sung": 8359,
      "sunflower": 8360,
      "sunbathe": 8361,
      "strums": 8362,
      "struggle": 8363,
      "spare": 8364,
      "spout": 8365,
      "spinner": 8366,
      "spattered": 8367,
      "doorstep": 8368,
      "guage": 8369,
      "gulls": 8370,
      "guides": 8371,
      "guiding": 8372,
      "camo": 8373,
      "onders": 8374,
      "faith": 8375,
      "faux": 8376,
      "defl": 8377,
      "delight": 8378,
      "mariac": 8379,
      "maracas": 8380,
      "rocker": 8381,
      "rocket": 8382,
      "flinging": 8383,
      "mugs": 8384,
      "surpr": 8385,
      "vessel": 8386,
      "ropri": 8387,
      "thatched": 8388,
      "ctural": 8389,
      "pedals": 8390,
      "helper": 8391,
      "tortilla": 8392,
      "eliner": 8393,
      "icking": 8394,
      "pane": 8395,
      "pancakes": 8396,
      "calen": 8397,
      "caged": 8398,
      "cavern": 8399,
      "stum": 8400,
      "stumbling": 8401,
      "busking": 8402,
      "busily": 8403,
      "cucu": 8404,
      "ggressive": 8405,
      "graying": 8406,
      "eyed": 8407,
      "eyeliner": 8408,
      "joking": 8409,
      "jostle": 8410,
      "joggers": 8411,
      "strips": 8412,
      "stricken": 8413,
      "compart": 8414,
      "completes": 8415,
      "prene": 8416,
      "previ": 8417,
      "preschool": 8418,
      "prepping": 8419,
      "pretend": 8420,
      "ques": 8421,
      "quart": 8422,
      "quilted": 8423,
      "cheered": 8424,
      "chemi": 8425,
      "chemical": 8426,
      "olis": 8427,
      "saving": 8428,
      "samples": 8429,
      "Segway": 8430,
      "climbed": 8431,
      "collea": 8432,
      "collap": 8433,
      "colourful": 8434,
      "enty": 8435,
      "boaters": 8436,
      "mingle": 8437,
      "mingling": 8438,
      "plow": 8439,
      "setup": 8440,
      "speckled": 8441,
      "trim": 8442,
      "treeless": 8443,
      "bandage": 8444,
      "lookers": 8445,
      "coated": 8446,
      "shopper": 8447,
      "signif": 8448,
      "procla": 8449,
      "provid": 8450,
      "author": 8451,
      "cork": 8452,
      "corsage": 8453,
      "correct": 8454,
      "barn": 8455,
      "barbed": 8456,
      "exha": 8457,
      "exotic": 8458,
      "explains": 8459,
      "exterior": 8460,
      "expect": 8461,
      "extinguish": 8462,
      "slop": 8463,
      "slung": 8464,
      "slump": 8465,
      "slalom": 8466,
      "vigate": 8467,
      "vilians": 8468,
      "forehand": 8469,
      "forearm": 8470,
      "sicle": 8471,
      "horsemen": 8472,
      "winds": 8473,
      "windsurfer": 8474,
      "sues": 8475,
      "sushi": 8476,
      "sucks": 8477,
      "suspect": 8478,
      "sucker": 8479,
      "success": 8480,
      "nips": 8481,
      "nibbles": 8482,
      "wee": 8483,
      "west": 8484,
      "western": 8485,
      "weights": 8486,
      "weiser": 8487,
      "sweatpants": 8488,
      "creation": 8489,
      "creature": 8490,
      "clone": 8491,
      "dingy": 8492,
      "abs": 8493,
      "ager": 8494,
      "appropri": 8495,
      "hugged": 8496,
      "humor": 8497,
      "humping": 8498,
      "treed": 8499,
      "obs": 8500,
      "obsc": 8501,
      "flap": 8502,
      "flame": 8503,
      "flaps": 8504,
      "windowsill": 8505,
      "furiously": 8506,
      "navigate": 8507,
      "shell": 8508,
      "desig": 8509,
      "drifts": 8510,
      "dribble": 8511,
      "bowled": 8512,
      "bowties": 8513,
      "pastry": 8514,
      "install": 8515,
      "fires": 8516,
      "ouched": 8517,
      "bagpipers": 8518,
      "again": 8519,
      "rounded": 8520,
      "capri": 8521,
      "capture": 8522,
      "capital": 8523,
      "captiv": 8524,
      "packs": 8525,
      "versal": 8526,
      "version": 8527,
      "anger": 8528,
      "angled": 8529,
      "cells": 8530,
      "cellane": 8531,
      "cellular": 8532,
      "instructors": 8533,
      "costumed": 8534,
      "leave": 8535,
      "cartons": 8536,
      "cessing": 8537,
      "restara": 8538,
      "disco": 8539,
      "discovering": 8540,
      "ciate": 8541,
      "cious": 8542,
      "civilians": 8543,
      "passage": 8544,
      "serious": 8545,
      "laught": 8546,
      "paperback": 8547,
      "kickboxer": 8548,
      "immi": 8549,
      "imitation": 8550,
      "artic": 8551,
      "riverbed": 8552,
      "ortant": 8553,
      "turf": 8554,
      "turkeys": 8555,
      "turbulent": 8556,
      "masonry": 8557,
      "graphy": 8558,
      "metalworking": 8559,
      "flier": 8560,
      "count": 8561,
      "messages": 8562,
      "laps": 8563,
      "lapse": 8564,
      "casing": 8565,
      "casion": 8566,
      "cashier": 8567,
      "hardware": 8568,
      "internet": 8569,
      "intertw": 8570,
      "international": 8571,
      "household": 8572,
      "itioning": 8573,
      "subject": 8574,
      "volcano": 8575,
      "volkswagen": 8576,
      "frilly": 8577,
      "classical": 8578,
      "gyro": 8579,
      "focal": 8580,
      "gener": 8581,
      "genous": 8582,
      "illustr": 8583,
      "stoops": 8584,
      "converses": 8585,
      "famous": 8586,
      "dental": 8587,
      "scary": 8588,
      "starfish": 8589,
      "started": 8590,
      "leaped": 8591,
      "graffited": 8592,
      "rapped": 8593,
      "smock": 8594,
      "matador": 8595,
      "officials": 8596,
      "trails": 8597,
      "price": 8598,
      "skyscraper": 8599,
      "cupping": 8600,
      "fours": 8601,
      "batting": 8602,
      "battery": 8603,
      "beds": 8604,
      "garter": 8605,
      "garish": 8606,
      "garments": 8607,
      "Challen": 8608,
      "filmed": 8609,
      "steal": 8610,
      "stead": 8611,
      "steals": 8612,
      "steering": 8613,
      "should": 8614,
      "matches": 8615,
      "matched": 8616,
      "wetland": 8617,
      "clustered": 8618,
      "flipped": 8619,
      "border": 8620,
      "fetches": 8621,
      "sedan": 8622,
      "couches": 8623,
      "stopping": 8624,
      "medal": 8625,
      "medic": 8626,
      "median": 8627,
      "medals": 8628,
      "showers": 8629,
      "showgirl": 8630,
      "showcasing": 8631,
      "squash": 8632,
      "squirts": 8633,
      "squirrel": 8634,
      "homework": 8635,
      "crag": 8636,
      "crack": 8637,
      "crabs": 8638,
      "crayo": 8639,
      "cracked": 8640,
      "crammed": 8641,
      "bottled": 8642,
      "patrolling": 8643,
      "patties": 8644,
      "patriot": 8645,
      "urely": 8646,
      "lowering": 8647,
      "silk": 8648,
      "wrangle": 8649,
      "writer": 8650,
      "empanad": 8651,
      "emptying": 8652,
      "diners": 8653,
      "protectors": 8654,
      "schools": 8655,
      "inspired": 8656,
      "blank": 8657,
      "blankly": 8658,
      "drawer": 8659,
      "drawers": 8660,
      "cliffs": 8661,
      "lettuce": 8662,
      "bares": 8663,
      "wrestles": 8664,
      "cheerful": 8665,
      "breakdances": 8666,
      "mulch": 8667,
      "cutes": 8668,
      "cutouts": 8669,
      "cutter": 8670,
      "offered": 8671,
      "Indians": 8672,
      "hamming": 8673,
      "pork": 8674,
      "varied": 8675,
      "styled": 8676,
      "styling": 8677,
      "stylist": 8678,
      "izes": 8679,
      "mirrors": 8680,
      "washers": 8681,
      "hitter": 8682,
      "visit": 8683,
      "drumming": 8684,
      "drummers": 8685,
      "function": 8686,
      "funky": 8687,
      "fundrais": 8688,
      "fencers": 8689,
      "chael": 8690,
      "collision": 8691,
      "necktie": 8692,
      "sweets": 8693,
      "platter": 8694,
      "surfboarder": 8695,
      "zzled": 8696,
      "silverware": 8697,
      "platforms": 8698,
      "bbon": 8699,
      "screens": 8700,
      "screened": 8701,
      "trading": 8702,
      "aston": 8703,
      "mime": 8704,
      "milling": 8705,
      "misty": 8706,
      "operate": 8707,
      "World": 8708,
      "examined": 8709,
      "burying": 8710,
      "burrit": 8711,
      "chili": 8712,
      "chiev": 8713,
      "chipping": 8714,
      "hoodies": 8715,
      "hooked": 8716,
      "supports": 8717,
      "supported": 8718,
      "lifeguards": 8719,
      "particular": 8720,
      "golfers": 8721,
      "lanta": 8722,
      "language": 8723,
      "leashed": 8724,
      "common": 8725,
      "camps": 8726,
      "campus": 8727,
      "enjoyed": 8728,
      "catamaran": 8729,
      "harnes": 8730,
      "attentive": 8731,
      "attended": 8732,
      "stunning": 8733,
      "custody": 8734,
      "pens": 8735,
      "tackler": 8736,
      "discusses": 8737,
      "loader": 8738,
      "canoeing": 8739,
      "participant": 8740,
      "Domin": 8741,
      "drape": 8742,
      "draulic": 8743,
      "syrup": 8744,
      "symphon": 8745,
      "repairman": 8746,
      "churning": 8747,
      "melon": 8748,
      "melons": 8749,
      "drawings": 8750,
      "Heavy": 8751,
      "Heineken": 8752,
      "miners": 8753,
      "spending": 8754,
      "shoelaces": 8755,
      "finishes": 8756,
      "fanny": 8757,
      "fluid": 8758,
      "flutes": 8759,
      "eyeing": 8760,
      "presented": 8761,
      "teaches": 8762,
      "teachers": 8763,
      "softly": 8764,
      "brothers": 8765,
      "brocco": 8766,
      "karaoke": 8767,
      "stories": 8768,
      "berries": 8769,
      "hurt": 8770,
      "hurry": 8771,
      "streaming": 8772,
      "streamers": 8773,
      "postcards": 8774,
      "circles": 8775,
      "States": 8776,
      "Stones": 8777,
      "Standing": 8778,
      "warrior": 8779,
      "rackets": 8780,
      "contained": 8781,
      "containers": 8782,
      "decked": 8783,
      "freight": 8784,
      "geridoo": 8785,
      "mustang": 8786,
      "paddlers": 8787,
      "Coke": 8788,
      "bunk": 8789,
      "bundles": 8790,
      "tongues": 8791,
      "wineglass": 8792,
      "attaching": 8793,
      "openings": 8794,
      "kayaker": 8795,
      "spotlights": 8796,
      "grain": 8797,
      "grave": 8798,
      "grains": 8799,
      "graze": 8800,
      "Blurry": 8801,
      "approached": 8802,
      "palace": 8803,
      "waterfalls": 8804,
      "putt": 8805,
      "steeplechase": 8806,
      "Maintenance": 8807,
      "donations": 8808,
      "podiums": 8809,
      "Newly": 8810,
      "mounds": 8811,
      "scores": 8812,
      "grinder": 8813,
      "curbside": 8814,
      "amplifier": 8815,
      "braids": 8816,
      "careful": 8817,
      "caressing": 8818,
      "engaging": 8819,
      "embraces": 8820,
      "farming": 8821,
      "wasaki": 8822,
      "recorder": 8823,
      "fixture": 8824,
      "pajama": 8825,
      "bagel": 8826,
      "bandannas": 8827,
      "troop": 8828,
      "trooper": 8829,
      "escalators": 8830,
      "fingernails": 8831,
      "folders": 8832,
      "maple": 8833,
      "mixture": 8834,
      "spoons": 8835,
      "targets": 8836,
      "actions": 8837,
      "transformer": 8838,
      "relaxed": 8839,
      "Attractive": 8840,
      "Atlanta": 8841,
      "occasion": 8842,
      "saluting": 8843,
      "involves": 8844,
      "chopped": 8845,
      "choppy": 8846,
      "coached": 8847,
      "parachutist": 8848,
      "oddly": 8849,
      "Artist": 8850,
      "Crouching": 8851,
      "Chev": 8852,
      "freestyle": 8853,
      "nual": 8854,
      "victim": 8855,
      "shawls": 8856,
      "rollerblader": 8857,
      "halfway": 8858,
      "Joggers": 8859,
      "Los": 8860,
      "Most": 8861,
      "flexing": 8862,
      "flexi": 8863,
      "hydraulic": 8864,
      "pineapple": 8865,
      "pineapples": 8866,
      "routines": 8867,
      "spaghetti": 8868,
      "warmers": 8869,
      "sandwiches": 8870,
      "dumping": 8871,
      "controlled": 8872,
      "reflecting": 8873,
      "reflects": 8874,
      "knitted": 8875,
      "received": 8876,
      "possible": 8877,
      "exercises": 8878,
      "Marx": 8879,
      "Olympians": 8880,
      "igloo": 8881,
      "igator": 8882,
      "neighbors": 8883,
      "Onlookers": 8884,
      "mount": 8885,
      "props": 8886,
      "proper": 8887,
      "propeller": 8888,
      "spiky": 8889,
      "twister": 8890,
      "assists": 8891,
      "assistance": 8892,
      "peek": 8893,
      "cottage": 8894,
      "supervision": 8895,
      "superior": 8896,
      "Firemen": 8897,
      "wildfire": 8898,
      "billiard": 8899,
      "Must": 8900,
      "Muzzled": 8901,
      "aims": 8902,
      "crush": 8903,
      "crushed": 8904,
      "crumbling": 8905,
      "ferns": 8906,
      "gallon": 8907,
      "patchy": 8908,
      "punches": 8909,
      "sparks": 8910,
      "grandparents": 8911,
      "textile": 8912,
      "ethnicities": 8913,
      "comforts": 8914,
      "comforter": 8915,
      "LeBron": 8916,
      "Rocks": 8917,
      "private": 8918,
      "learn": 8919,
      "learns": 8920,
      "plume": 8921,
      "experien": 8922,
      "experiments": 8923,
      "calmly": 8924,
      "2008": 8925,
      "copy": 8926,
      "copies": 8927,
      "jets": 8928,
      "slamming": 8929,
      "motions": 8930,
      "pretzels": 8931,
      "paddled": 8932,
      "Fest": 8933,
      "creepy": 8934,
      "missed": 8935,
      "miscellane": 8936,
      "mischiev": 8937,
      "winks": 8938,
      "technical": 8939,
      "bystander": 8940,
      "auditioning": 8941,
      "Adult": 8942,
      "Walking": 8943,
      "Walkers": 8944,
      "glides": 8945,
      "important": 8946,
      "inclined": 8947,
      "combs": 8948,
      "contested": 8949,
      "contestant": 8950,
      "contestants": 8951,
      "shadowy": 8952,
      "Skater": 8953,
      "fitting": 8954,
      "jagged": 8955,
      "rinsing": 8956,
      "reclining": 8957,
      "orah": 8958,
      "mainly": 8959,
      "acrobatics": 8960,
      "defending": 8961,
      "martini": 8962,
      "briefcases": 8963,
      "scaffolds": 8964,
      "Johns": 8965,
      "Camel": 8966,
      "Enrolling": 8967,
      "Wee": 8968,
      "Western": 8969,
      "murals": 8970,
      "risk": 8971,
      "ankle": 8972,
      "remode": 8973,
      "blinds": 8974,
      "separated": 8975,
      "separates": 8976,
      "sections": 8977,
      "soapy": 8978,
      "judge": 8979,
      "accompaniment": 8980,
      "wakeboards": 8981,
      "wakeboarding": 8982,
      "bicycler": 8983,
      "sliced": 8984,
      "treatment": 8985,
      "evenly": 8986,
      "reflections": 8987,
      "000": 8988,
      "culture": 8989,
      "cultural": 8990,
      "culinary": 8991,
      "vault": 8992,
      "hipsters": 8993,
      "grasps": 8994,
      "coastline": 8995,
      "buffalo": 8996,
      "locker": 8997,
      "lockers": 8998,
      "delivering": 8999,
      "sauce": 9000,
      "saucer": 9001,
      "sausage": 9002,
      "specialized": 9003,
      "projection": 9004,
      "humans": 9005,
      "interviews": 9006,
      "candlelight": 9007,
      "harvested": 9008,
      "retrieve": 9009,
      "Skiiers": 9010,
      "everyone": 9011,
      "release": 9012,
      "chinatown": 9013,
      "ongolian": 9014,
      "concentrating": 9015,
      "scrabble": 9016,
      "scramble": 9017,
      "scientific": 9018,
      "guidebook": 9019,
      "quietly": 9020,
      "illuminating": 9021,
      "assisted": 9022,
      "bulldog": 9023,
      "Jackson": 9024,
      "Michael": 9025,
      "Notre": 9026,
      "Paris": 9027,
      "Rodgers": 9028,
      "Seated": 9029,
      "Tea": 9030,
      "boutique": 9031,
      "chisel": 9032,
      "chisels": 9033,
      "eagle": 9034,
      "elaborately": 9035,
      "hunter": 9036,
      "hundreds": 9037,
      "powdered": 9038,
      "skew": 9039,
      "wondering": 9040,
      "yells": 9041,
      "innertube": 9042,
      "thousands": 9043,
      "registered": 9044,
      "historical": 9045,
      "ascends": 9046,
      "secures": 9047,
      "skulls": 9048,
      "splits": 9049,
      "sleepy": 9050,
      "flashy": 9051,
      "bridesmaid": 9052,
      "congregation": 9053,
      "Arab": 9054,
      "Carol": 9055,
      "Foods": 9056,
      "Human": 9057,
      "Orioles": 9058,
      "Vehicle": 9059,
      "Viol": 9060,
      "citizen": 9061,
      "masses": 9062,
      "massage": 9063,
      "slipper": 9064,
      "twins": 9065,
      "twenty": 9066,
      "altitude": 9067,
      "shacking": 9068,
      "snorkeling": 9069,
      "terminals": 9070,
      "consults": 9071,
      "consulting": 9072,
      "scrapping": 9073,
      "spirit": 9074,
      "marshal": 9075,
      "competitively": 9076,
      "mattresses": 9077,
      "Rollerblader": 9078,
      "releasing": 9079,
      "releases": 9080,
      "kimono": 9081,
      "Eleven": 9082,
      "Great": 9083,
      "Spring": 9084,
      "Spider": 9085,
      "Spiderman": 9086,
      "Swimmer": 9087,
      "Swimmers": 9088,
      "Sunglasses": 9089,
      "Sunday": 9090,
      "Soldier": 9091,
      "Volley": 9092,
      "Volkswagen": 9093,
      "erected": 9094,
      "gently": 9095,
      "knock": 9096,
      "linens": 9097,
      "moored": 9098,
      "natives": 9099,
      "nesota": 9100,
      "tinted": 9101,
      "tinsel": 9102,
      "wands": 9103,
      "inflating": 9104,
      "lemonade": 9105,
      "attacking": 9106,
      "attacked": 9107,
      "challenging": 9108,
      "whisking": 9109,
      "grips": 9110,
      "memorabi": 9111,
      "coconut": 9112,
      "frowns": 9113,
      "frowning": 9114,
      "illac": 9115,
      "tipped": 9116,
      "builds": 9117,
      "puzzled": 9118,
      "curiously": 9119,
      "barricade": 9120,
      "submerges": 9121,
      "questions": 9122,
      "Workman": 9123,
      "dragster": 9124,
      "brochures": 9125,
      "occurred": 9126,
      "saddled": 9127,
      "alcoholic": 9128,
      "Athlete": 9129,
      "Bald": 9130,
      "Baltimore": 9131,
      "Cyclone": 9132,
      "Calvin": 9133,
      "Italy": 9134,
      "Minnesota": 9135,
      "Pipe": 9136,
      "Pilot": 9137,
      "Performers": 9138,
      "Patrick": 9139,
      "bonfire": 9140,
      "bonnet": 9141,
      "drunken": 9142,
      "detergent": 9143,
      "determined": 9144,
      "eccentr": 9145,
      "glue": 9146,
      "glowing": 9147,
      "moutain": 9148,
      "poultry": 9149,
      "roots": 9150,
      "slingshot": 9151,
      "wanting": 9152,
      "answer": 9153,
      "pelican": 9154,
      "admire": 9155,
      "sewer": 9156,
      "selections": 9157,
      "limbs": 9158,
      "masterpiece": 9159,
      "Angeles": 9160,
      "peddling": 9161,
      "violet": 9162,
      "violence": 9163,
      "volunteer": 9164,
      "volunteers": 9165,
      "breaststroke": 9166,
      "lettering": 9167,
      "buttons": 9168,
      "penguins": 9169,
      "refreshments": 9170,
      "saxophon": 9171,
      "Commuters": 9172,
      "sparsely": 9173,
      "depicted": 9174,
      "tambourines": 9175,
      "Gardens": 9176,
      "Harlem": 9177,
      "Kayaker": 9178,
      "Louvre": 9179,
      "Mrs": 9180,
      "Needle": 9181,
      "Outdoors": 9182,
      "Popsicle": 9183,
      "Ribbon": 9184,
      "Scouts": 9185,
      "Sidewalk": 9186,
      "Time": 9187,
      "Terrier": 9188,
      "Waiting": 9189,
      "average": 9190,
      "daring": 9191,
      "glancing": 9192,
      "glances": 9193,
      "hedges": 9194,
      "latin": 9195,
      "loudspeaker": 9196,
      "mowed": 9197,
      "ninja": 9198,
      "pouncing": 9199,
      "pounces": 9200,
      "zooms": 9201,
      "thorugh": 9202,
      "hitchhiking": 9203,
      "chores": 9204,
      "choreograp": 9205,
      "blooming": 9206,
      "shuffles": 9207,
      "locomotive": 9208,
      "locomotives": 9209,
      "magician": 9210,
      "sketch": 9211,
      "indigenous": 9212,
      "diagram": 9213,
      "consoles": 9214,
      "travelling": 9215,
      "scrimmage": 9216,
      "clipboard": 9217,
      "deciding": 9218,
      "decides": 9219,
      "salesman": 9220,
      "specific": 9221,
      "residence": 9222,
      "residential": 9223,
      "circuits": 9224,
      "Motorcyclist": 9225,
      "Motorcycle": 9226,
      "maintained": 9227,
      "Engine": 9228,
      "Lifeguards": 9229,
      "Russian": 9230,
      "adolescent": 9231,
      "respectively": 9232,
      "architecture": 9233,
      "architectural": 9234,
      "Airways": 9235,
      "Baller": 9236,
      "Business": 9237,
      "CKS": 9238,
      "Circus": 9239,
      "Cooks": 9240,
      "Capris": 9241,
      "Castro": 9242,
      "Farmer": 9243,
      "Flag": 9244,
      "From": 9245,
      "Factory": 9246,
      "Forever": 9247,
      "Horses": 9248,
      "Isra": 9249,
      "Medical": 9250,
      "Racing": 9251,
      "SWAT": 9252,
      "Samsung": 9253,
      "United": 9254,
      "aviator": 9255,
      "dalmat": 9256,
      "didgeridoo": 9257,
      "dueling": 9258,
      "european": 9259,
      "falcon": 9260,
      "gambling": 9261,
      "olympics": 9262,
      "pearls": 9263,
      "swoops": 9264,
      "smelling": 9265,
      "witnes": 9266,
      "insect": 9267,
      "instructions": 9268,
      "investig": 9269,
      "reporters": 9270,
      "leisurely": 9271,
[...]
